{
  "version": "1.0",
  "truncation": null,
  "padding": null,
  "added_tokens": [
    {
      "id": 0,
      "content": "<pad>",
      "single_word": false,
      "lstrip": false,
      "rstrip": false,
      "normalized": false,
      "special": true
    },
    {
      "id": 1,
      "content": "<s>",
      "single_word": false,
      "lstrip": false,
      "rstrip": false,
      "normalized": false,
      "special": true
    },
    {
      "id": 2,
      "content": "</s>",
      "single_word": false,
      "lstrip": false,
      "rstrip": false,
      "normalized": false,
      "special": true
    },
    {
      "id": 3,
      "content": "<unk>",
      "single_word": false,
      "lstrip": false,
      "rstrip": false,
      "normalized": false,
      "special": true
    }
  ],
  "normalizer": null,
  "pre_tokenizer": {
    "type": "Whitespace"
  },
  "post_processor": null,
  "decoder": null,
  "model": {
    "type": "BPE",
    "dropout": null,
    "unk_token": "<unk>",
    "continuing_subword_prefix": null,
    "end_of_word_suffix": null,
    "fuse_unk": false,
    "byte_fallback": false,
    "ignore_merges": false,
    "vocab": {
      "<pad>": 0,
      "<s>": 1,
      "</s>": 2,
      "<unk>": 3,
      "!": 4,
      "&": 5,
      "'": 6,
      "(": 7,
      ")": 8,
      ",": 9,
      "-": 10,
      ".": 11,
      "/": 12,
      ";": 13,
      "?": 14,
      "A": 15,
      "B": 16,
      "C": 17,
      "D": 18,
      "E": 19,
      "F": 20,
      "G": 21,
      "H": 22,
      "I": 23,
      "J": 24,
      "K": 25,
      "L": 26,
      "M": 27,
      "N": 28,
      "O": 29,
      "P": 30,
      "Q": 31,
      "R": 32,
      "S": 33,
      "T": 34,
      "U": 35,
      "V": 36,
      "W": 37,
      "Y": 38,
      "Z": 39,
      "a": 40,
      "b": 41,
      "c": 42,
      "d": 43,
      "e": 44,
      "f": 45,
      "g": 46,
      "h": 47,
      "i": 48,
      "j": 49,
      "k": 50,
      "l": 51,
      "m": 52,
      "n": 53,
      "o": 54,
      "p": 55,
      "q": 56,
      "r": 57,
      "s": 58,
      "t": 59,
      "u": 60,
      "v": 61,
      "w": 62,
      "x": 63,
      "y": 64,
      "z": 65,
      "": 66,
      "": 67,
      "": 68,
      "": 69,
      "Ã": 70,
      "Ì": 71,
      "â": 72,
      "š": 73,
      "aa": 74,
      "in": 75,
      "ee": 76,
      "an": 77,
      "hk": 78,
      "it": 79,
      "er": 80,
      "ii": 81,
      "on": 82,
      "im": 83,
      "at": 84,
      "oo": 85,
      "is": 86,
      "al": 87,
      "am": 88,
      "him": 89,
      "en": 90,
      "ak": 91,
      "th": 92,
      "ar": 93,
      "hs": 94,
      "or": 95,
      "waa": 96,
      "pi": 97,
      "ing": 98,
      "el": 99,
      "wi": 100,
      "us": 101,
      "ht": 102,
      "le": 103,
      "aak": 104,
      "ac": 105,
      "wee": 106,
      "ro": 107,
      "as": 108,
      "es": 109,
      "ic": 110,
      "il": 111,
      "to": 112,
      "ahk": 113,
      "ve": 114,
      "om": 115,
      "re": 116,
      "ut": 117,
      "aw": 118,
      "aan": 119,
      "ki": 120,
      "ow": 121,
      "oon": 122,
      "It": 123,
      "ah": 124,
      "pe": 125,
      "aahk": 126,
      "ay": 127,
      "un": 128,
      "mi": 129,
      "of": 130,
      "ap": 131,
      "ci": 132,
      "ol": 133,
      "Be": 134,
      "aakan": 135,
      "ink": 136,
      "ad": 137,
      "ši": 138,
      "kii": 139,
      "ave": 140,
      "ed": 141,
      "tr": 142,
      "and": 143,
      "ot": 144,
      "ake": 145,
      "si": 146,
      "ver": 147,
      "hki": 148,
      "et": 149,
      "ur": 150,
      "ch": 151,
      "ly": 152,
      "pii": 153,
      "se": 154,
      "ir": 155,
      "ig": 156,
      "int": 157,
      "one": 158,
      "eeh": 159,
      "aal": 160,
      "he": 161,
      "the": 162,
      "ge": 163,
      "pee": 164,
      "ul": 165,
      "id": 166,
      "for": 167,
      "st": 168,
      "ti": 169,
      "ood": 170,
      "ell": 171,
      "ther": 172,
      "ome": 173,
      "een": 174,
      "ent": 175,
      "thing": 176,
      "kw": 177,
      "ho": 178,
      "ant": 179,
      "Have": 180,
      "be": 181,
      "um": 182,
      "up": 183,
      "ab": 184,
      "li": 185,
      "her": 186,
      "kin": 187,
      "lo": 188,
      "aap": 189,
      "wit": 190,
      "hsi": 191,
      "waap": 192,
      "hš": 193,
      "kan": 194,
      "ri": 195,
      "ter": 196,
      "ck": 197,
      "ry": 198,
      "eel": 199,
      "all": 200,
      "ne": 201,
      "out": 202,
      "per": 203,
      "some": 204,
      "ace": 205,
      "old": 206,
      "),": 207,
      "ra": 208,
      "sii": 209,
      "ahki": 210,
      "by": 211,
      "und": 212,
      "ce": 213,
      "wii": 214,
      "ack": 215,
      "pak": 216,
      "wat": 217,
      "em": 218,
      "iver": 219,
      "oohk": 220,
      "ish": 221,
      "with": 222,
      "ta": 223,
      "cii": 224,
      "co": 225,
      "ko": 226,
      "kaan": 227,
      "aahkw": 228,
      "di": 229,
      "nii": 230,
      "tee": 231,
      "htoo": 232,
      "something": 233,
      "River": 234,
      "ong": 235,
      "maa": 236,
      "sh": 237,
      "ook": 238,
      "ast": 239,
      "pl": 240,
      "qu": 241,
      "ate": 242,
      "row": 243,
      "est": 244,
      "ick": 245,
      "man": 246,
      "mii": 247,
      "hkw": 248,
      "ahs": 249,
      "ct": 250,
      "de": 251,
      "hp": 252,
      "hši": 253,
      "ard": 254,
      "inkwee": 255,
      "piiw": 256,
      "ear": 257,
      "ke": 258,
      "min": 259,
      "ou": 260,
      "ool": 261,
      "orn": 262,
      "oons": 263,
      "aham": 264,
      "ight": 265,
      "ana": 266,
      "ite": 267,
      "eric": 268,
      "fro": 269,
      "gr": 270,
      "low": 271,
      "so": 272,
      "eek": 273,
      "tree": 274,
      "osi": 275,
      "ss": 276,
      "son": 277,
      "oot": 278,
      "ach": 279,
      "ill": 280,
      "siipiiw": 281,
      "ive": 282,
      "me": 283,
      "yaa": 284,
      "iteeh": 285,
      "Th": 286,
      "api": 287,
      "ip": 288,
      "own": 289,
      "ber": 290,
      "sp": 291,
      "te": 292,
      "art": 293,
      "ff": 294,
      "have": 295,
      "ion": 296,
      "moo": 297,
      "Ch": 298,
      "good": 299,
      "other": 300,
      "sis": 301,
      "ine": 302,
      "waan": 303,
      "person": 304,
      "Bl": 305,
      "awi": 306,
      "hand": 307,
      "mee": 308,
      "po": 309,
      "well": 310,
      "ather": 311,
      "use": 312,
      "water": 313,
      "ia": 314,
      "pen": 315,
      "hsee": 316,
      "pihk": 317,
      "peak": 318,
      "Make": 319,
      "St": 320,
      "bl": 321,
      "con": 322,
      "down": 323,
      "ohk": 324,
      "ug": 325,
      "we": 326,
      "alk": 327,
      "alaa": 328,
      "pil": 329,
      "In": 330,
      "To": 331,
      "awee": 332,
      "bo": 333,
      "mal": 334,
      "poon": 335,
      "wan": 336,
      "inaak": 337,
      "ang": 338,
      "ist": 339,
      "Wh": 340,
      "der": 341,
      "face": 342,
      "ie": 343,
      "ik": 344,
      "iš": 345,
      "mahk": 346,
      "paa": 347,
      "res": 348,
      "waakan": 349,
      "from": 350,
      "Cr": 351,
      "Go": 352,
      "aht": 353,
      "age": 354,
      "can": 355,
      "if": 356,
      "way": 357,
      "yon": 358,
      "isi": 359,
      "ash": 360,
      "ass": 361,
      "ice": 362,
      "Br": 363,
      "ag": 364,
      "air": 365,
      "cr": 366,
      "cim": 367,
      "clo": 368,
      "gen": 369,
      "mo": 370,
      "ue": 371,
      "ure": 372,
      "aay": 373,
      "eep": 374,
      "atoo": 375,
      "ise": 376,
      "arm": 377,
      "pik": 378,
      "off": 379,
      "Cut": 380,
      "bad": 381,
      "each": 382,
      "get": 383,
      "make": 384,
      "nah": 385,
      "ph": 386,
      "too": 387,
      "tle": 388,
      "wood": 389,
      "šam": 390,
      "ans": 391,
      "hkii": 392,
      "itee": 393,
      "round": 394,
      "ahaakan": 395,
      "about": 396,
      "iteehee": 397,
      "Sh": 398,
      "ail": 399,
      "cer": 400,
      "do": 401,
      "kam": 402,
      "no": 403,
      "str": 404,
      "aapii": 405,
      "hsen": 406,
      "htan": 407,
      "top": 408,
      "Indi": 409,
      "Le": 410,
      "av": 411,
      "ex": 412,
      "kwee": 413,
      "land": 414,
      "noon": 415,
      "ple": 416,
      "ini": 417,
      "ata": 418,
      "ame": 419,
      "aki": 420,
      "ush": 421,
      "acro": 422,
      "red": 423,
      "intam": 424,
      "peehk": 425,
      "eens": 426,
      "tain": 427,
      "Am": 428,
      "Car": 429,
      "Gr": 430,
      "Mo": 431,
      "com": 432,
      "kot": 433,
      "taa": 434,
      "atee": 435,
      "ale": 436,
      "eni": 437,
      "ory": 438,
      "htam": 439,
      "erican": 440,
      "malee": 441,
      "Pl": 442,
      "br": 443,
      "cle": 444,
      "cold": 445,
      "fe": 446,
      "fish": 447,
      "naa": 448,
      "nee": 449,
      "os": 450,
      "tam": 451,
      "wh": 452,
      "ami": 453,
      "end": 454,
      "ild": 455,
      "kihk": 456,
      "mihši": 457,
      "side": 458,
      "urn": 459,
      "ull": 460,
      "tion": 461,
      "hšin": 462,
      "nep": 463,
      "place": 464,
      "oonsaa": 465,
      "He": 466,
      "Take": 467,
      "car": 468,
      "go": 469,
      "ground": 470,
      "hci": 471,
      "kaa": 472,
      "mel": 473,
      "mas": 474,
      "mall": 475,
      "nut": 476,
      "now": 477,
      "ob": 478,
      "pin": 479,
      "pan": 480,
      "put": 481,
      "pap": 482,
      "ud": 483,
      "wa": 484,
      "wel": 485,
      "aaš": 486,
      "ind": 487,
      "eet": 488,
      "anim": 489,
      "iil": 490,
      "ath": 491,
      "oom": 492,
      "ork": 493,
      "ort": 494,
      "htaw": 495,
      "ica": 496,
      "kiš": 497,
      "aahkii": 498,
      "aalhs": 499,
      "here": 500,
      "rib": 501,
      "miihk": 502,
      "ahsen": 503,
      "berry": 504,
      "inaakosi": 505,
      "White": 506,
      "certain": 507,
      "Indiana": 508,
      "American": 509,
      "Do": 510,
      "Speak": 511,
      "ahtoo": 512,
      "bro": 513,
      "fr": 514,
      "his": 515,
      "ile": 516,
      "ni": 517,
      "ous": 518,
      "pr": 519,
      "pro": 520,
      "ub": 521,
      "inish": 522,
      "ange": 523,
      "imin": 524,
      "akii": 525,
      "hsaa": 526,
      "waapi": 527,
      "ase": 528,
      "aani": 529,
      "kihki": 530,
      "miš": 531,
      "kiiš": 532,
      "wiihk": 533,
      "outh": 534,
      "Bu": 535,
      "Pe": 536,
      "bre": 537,
      "cl": 538,
      "cat": 539,
      "cus": 540,
      "cut": 541,
      "dr": 542,
      "fi": 543,
      "gl": 544,
      "kil": 545,
      "mat": 546,
      "par": 547,
      "ting": 548,
      "yaal": 549,
      "ins": 550,
      "along": 551,
      "amp": 552,
      "ensis": 553,
      "waahk": 554,
      "ely": 555,
      "aaki": 556,
      "aakii": 557,
      "aci": 558,
      "ess": 559,
      "oft": 560,
      "kiihk": 561,
      "irg": 562,
      "inter": 563,
      "heart": 564,
      "antam": 565,
      "hšii": 566,
      "ciil": 567,
      "Black": 568,
      "Ar": 569,
      "Lo": 570,
      "Tr": 571,
      "bir": 572,
      "back": 573,
      "ea": 574,
      "ew": 575,
      "fl": 576,
      "hpi": 577,
      "ll": 578,
      "mil": 579,
      "mouth": 580,
      "oun": 581,
      "poo": 582,
      "pal": 583,
      "rel": 584,
      "speak": 585,
      "tahk": 586,
      "take": 587,
      "ze": 588,
      "ance": 589,
      "ity": 590,
      "waal": 591,
      "ici": 592,
      "read": 593,
      "igh": 594,
      "gether": 595,
      "waapan": 596,
      "hšim": 597,
      "Throw": 598,
      "spp": 599,
      "Com": 600,
      "Ho": 601,
      "Li": 602,
      "Look": 603,
      "Qu": 604,
      "Walk": 605,
      "cook": 606,
      "dy": 607,
      "ey": 608,
      "hi": 609,
      "hair": 610,
      "kee": 611,
      "kit": 612,
      "kisi": 613,
      "light": 614,
      "mist": 615,
      "over": 616,
      "ound": 617,
      "pahk": 618,
      "ty": 619,
      "tii": 620,
      "tim": 621,
      "wom": 622,
      "yo": 623,
      "aahs": 624,
      "inci": 625,
      "inaakan": 626,
      "iip": 627,
      "iihk": 628,
      "onam": 629,
      "onki": 630,
      "ation": 631,
      "think": 632,
      "hte": 633,
      "together": 634,
      "reat": 635,
      "aank": 636,
      "ahw": 637,
      "very": 638,
      "peehki": 639,
      "able": 640,
      "cover": 641,
      "Creek": 642,
      "generic": 643,
      "An": 644,
      "El": 645,
      "Say": 646,
      "Wr": 647,
      "ax": 648,
      "ain": 649,
      "ble": 650,
      "cor": 651,
      "come": 652,
      "dis": 653,
      "ev": 654,
      "gh": 655,
      "hot": 656,
      "kaahk": 657,
      "len": 658,
      "lar": 659,
      "mer": 660,
      "mon": 661,
      "meeh": 662,
      "nat": 663,
      "nak": 664,
      "pre": 665,
      "soon": 666,
      "slow": 667,
      "šim": 668,
      "aam": 669,
      "aawi": 670,
      "aacim": 671,
      "inam": 672,
      "eed": 673,
      "ank": 674,
      "atw": 675,
      "waam": 676,
      "waapii": 677,
      "ele": 678,
      "omin": 679,
      "aankw": 680,
      "pem": 681,
      "inkwi": 682,
      "heat": 683,
      "ides": 684,
      "ellow": 685,
      "eelintam": 686,
      "under": 687,
      "sister": 688,
      "mahkatee": 689,
      "cloth": 690,
      ".)": 691,
      "Corn": 692,
      "Dr": 693,
      "Po": 694,
      "Pr": 695,
      "Re": 696,
      "So": 697,
      "Wat": 698,
      "aši": 699,
      "cre": 700,
      "corn": 701,
      "ful": 702,
      "flow": 703,
      "give": 704,
      "hw": 705,
      "hold": 706,
      "high": 707,
      "ihki": 708,
      "koon": 709,
      "long": 710,
      "men": 711,
      "myaa": 712,
      "myaal": 713,
      "naan": 714,
      "neeh": 715,
      "nip": 716,
      "py": 717,
      "pel": 718,
      "pes": 719,
      "pot": 720,
      "sw": 721,
      "sak": 722,
      "tool": 723,
      "uch": 724,
      "wn": 725,
      "wahki": 726,
      "ward": 727,
      "šw": 728,
      "eehsi": 729,
      "eral": 730,
      "that": 731,
      "are": 732,
      "ark": 733,
      "hsw": 734,
      "elf": 735,
      "led": 736,
      "ross": 737,
      "ily": 738,
      "away": 739,
      "kiil": 740,
      "tri": 741,
      "otaw": 742,
      "heal": 743,
      "ide": 744,
      "hole": 745,
      "house": 746,
      "aapow": 747,
      "eelim": 748,
      "tawee": 749,
      "green": 750,
      "ress": 751,
      "across": 752,
      "animal": 753,
      "wiihkap": 754,
      "Tree": 755,
      "woman": 756,
      "Ap": 757,
      "Bo": 758,
      "Bel": 759,
      "Eat": 760,
      "Lit": 761,
      "Per": 762,
      "Ro": 763,
      "West": 764,
      "Warm": 765,
      "af": 766,
      "aint": 767,
      "bon": 768,
      "cin": 769,
      "cil": 770,
      "day": 771,
      "dir": 772,
      "ehk": 773,
      "ece": 774,
      "ft": 775,
      "fall": 776,
      "finish": 777,
      "hpik": 778,
      "kat": 779,
      "kal": 780,
      "kol": 781,
      "law": 782,
      "leep": 783,
      "ment": 784,
      "not": 785,
      "num": 786,
      "noohk": 787,
      "ohs": 788,
      "rong": 789,
      "room": 790,
      "sun": 791,
      "small": 792,
      "tur": 793,
      "winter": 794,
      "wrong": 795,
      "inus": 796,
      "eew": 797,
      "ani": 798,
      "iti": 799,
      "era": 800,
      "imiš": 801,
      "oose": 802,
      "ally": 803,
      "throw": 804,
      "thread": 805,
      "hsit": 806,
      "hset": 807,
      "piece": 808,
      "wil": 809,
      "ust": 810,
      "acc": 811,
      "aanci": 812,
      "pect": 813,
      "mihk": 814,
      "aple": 815,
      "kiiši": 816,
      "aalim": 817,
      "hear": 818,
      "head": 819,
      "things": 820,
      "riend": 821,
      "tern": 822,
      "new": 823,
      "someone": 824,
      "rain": 825,
      "koci": 826,
      "diff": 827,
      "quid": 828,
      "key": 829,
      "ough": 830,
      "black": 831,
      "ugar": 832,
      "ief": 833,
      "nose": 834,
      "white": 835,
      "mask": 836,
      "paper": 837,
      "kišaa": 838,
      "ribbon": 839,
      "cooking": 840,
      "time": 841,
      "As": 842,
      "Bat": 843,
      "Bre": 844,
      "Can": 845,
      "Cat": 846,
      "Hold": 847,
      "Mis": 848,
      "Put": 849,
      "Red": 850,
      "Sit": 851,
      "Stop": 852,
      "Small": 853,
      "The": 854,
      "Talk": 855,
      "There": 856,
      "Wear": 857,
      "Wild": 858,
      "Youn": 859,
      "ait": 860,
      "bow": 861,
      "ction": 862,
      "dle": 863,
      "eat": 864,
      "fir": 865,
      "friend": 866,
      "gg": 867,
      "hur": 868,
      "kwi": 869,
      "katoo": 870,
      "look": 871,
      "moon": 872,
      "nake": 873,
      "neek": 874,
      "ness": 875,
      "oc": 876,
      "op": 877,
      "pim": 878,
      "pat": 879,
      "pink": 880,
      "paap": 881,
      "pper": 882,
      "poohk": 883,
      "part": 884,
      "see": 885,
      "ser": 886,
      "sal": 887,
      "sse": 888,
      "skin": 889,
      "tast": 890,
      "uck": 891,
      "vel": 892,
      "virg": 893,
      "wise": 894,
      "work": 895,
      "ya": 896,
      "yellow": 897,
      "šaakan": 898,
      "aaw": 899,
      "ino": 900,
      "inki": 901,
      "iihki": 902,
      "ont": 903,
      "ones": 904,
      "aten": 905,
      "ated": 906,
      "ison": 907,
      "alem": 908,
      "ens": 909,
      "ense": 910,
      "ence": 911,
      "akwan": 912,
      "around": 913,
      "ore": 914,
      "piit": 915,
      "ings": 916,
      "wikaan": 917,
      "used": 918,
      "ween": 919,
      "asi": 920,
      "awn": 921,
      "ahi": 922,
      "ahwi": 923,
      "pear": 924,
      "peht": 925,
      "mihšii": 926,
      "adensis": 927,
      "kiihki": 928,
      "inti": 929,
      "aalaki": 930,
      "fore": 931,
      "stand": 932,
      "story": 933,
      "there": 934,
      "enter": 935,
      "liquid": 936,
      "witeeh": 937,
      "waapow": 938,
      "wiici": 939,
      "pakat": 940,
      "dire": 941,
      "maawi": 942,
      "ickory": 943,
      "alaami": 944,
      "angu": 945,
      "canadensis": 946,
      "aapiikw": 947,
      "Leave": 948,
      "noont": 949,
      "acrosse": 950,
      "Play": 951,
      "kaatee": 952,
      "brother": 953,
      "fire": 954,
      "bird": 955,
      "keekaan": 956,
      "mistake": 957,
      "evil": 958,
      "Water": 959,
      "ihkipak": 960,
      "kišaapihk": 961,
      "Young": 962,
      "virgini": 963,
      "oneself": 964,
      "Ash": 965,
      "Bar": 966,
      "But": 967,
      "Big": 968,
      "Col": 969,
      "Cho": 970,
      "Cross": 971,
      "Dance": 972,
      "En": 973,
      "Eas": 974,
      "Finish": 975,
      "Grow": 976,
      "Give": 977,
      "Lake": 978,
      "Me": 979,
      "Mus": 980,
      "Ne": 981,
      "On": 982,
      "Pi": 983,
      "Sew": 984,
      "Sugar": 985,
      "Tell": 986,
      "Un": 987,
      "Ur": 988,
      "Virg": 989,
      "Wood": 990,
      "Wash": 991,
      "aut": 992,
      "band": 993,
      "big": 994,
      "ca": 995,
      "col": 996,
      "eš": 997,
      "fer": 998,
      "fly": 999,
      "feel": 1000,
      "fast": 1001,
      "ha": 1002,
      "hc": 1003,
      "haw": 1004,
      "je": 1005,
      "koo": 1006,
      "kis": 1007,
      "kwaa": 1008,
      "mus": 1009,
      "met": 1010,
      "maalhs": 1011,
      "nap": 1012,
      "night": 1013,
      "oe": 1014,
      "ox": 1015,
      "ohsee": 1016,
      "por": 1017,
      "pyaa": 1018,
      "rat": 1019,
      "ror": 1020,
      "sto": 1021,
      "saki": 1022,
      "soft": 1023,
      "uff": 1024,
      "yosi": 1025,
      "aapi": 1026,
      "aami": 1027,
      "aahsi": 1028,
      "aahp": 1029,
      "aatawee": 1030,
      "ina": 1031,
      "into": 1032,
      "inši": 1033,
      "inia": 1034,
      "eeli": 1035,
      "ane": 1036,
      "anus": 1037,
      "ansi": 1038,
      "hkaa": 1039,
      "ercus": 1040,
      "iikin": 1041,
      "atus": 1042,
      "oohs": 1043,
      "ooši": 1044,
      "alw": 1045,
      "alis": 1046,
      "alone": 1047,
      "americ": 1048,
      "akw": 1049,
      "waali": 1050,
      "pihsaa": 1051,
      "let": 1052,
      "lead": 1053,
      "weel": 1054,
      "rop": 1055,
      "rose": 1056,
      "icul": 1057,
      "ahkw": 1058,
      "ahkwaa": 1059,
      "ahkwee": 1060,
      "omi": 1061,
      "ream": 1062,
      "aankwee": 1063,
      "kiint": 1064,
      "peck": 1065,
      "aahkwi": 1066,
      "aahkwee": 1067,
      "aahkohk": 1068,
      "unk": 1069,
      "unt": 1070,
      "mihte": 1071,
      "apin": 1072,
      "ade": 1073,
      "edic": 1074,
      "andy": 1075,
      "urse": 1076,
      "chief": 1077,
      "idge": 1078,
      "stick": 1079,
      "thern": 1080,
      "ently": 1081,
      "antaakan": 1082,
      "ump": 1083,
      "waapam": 1084,
      "ripe": 1085,
      "raid": 1086,
      "emale": 1087,
      "oohkii": 1088,
      "oohkoon": 1089,
      "ciihs": 1090,
      "kociihs": 1091,
      "niihpik": 1092,
      "short": 1093,
      "frog": 1094,
      "mehk": 1095,
      "mooš": 1096,
      "Change": 1097,
      "meeht": 1098,
      "cont": 1099,
      "weather": 1100,
      "Bring": 1101,
      "general": 1102,
      "aapiik": 1103,
      "eensee": 1104,
      "Carry": 1105,
      "Carya": 1106,
      "clear": 1107,
      "naapi": 1108,
      "aašoohkoon": 1109,
      "animate": 1110,
      "Buck": 1111,
      "breast": 1112,
      "drink": 1113,
      "Like": 1114,
      "Quercus": 1115,
      "waapiikw": 1116,
      "ominy": 1117,
      "myaami": 1118,
      "neehpik": 1119,
      "wards": 1120,
      "dirty": 1121,
      "direction": 1122,
      "anguage": 1123,
      "Eastern": 1124,
      "Virginia": 1125,
      "americana": 1126,
      "pecker": 1127,
      ".),": 1128,
      "Ac": 1129,
      "Al": 1130,
      "Blow": 1131,
      "Bull": 1132,
      "Dis": 1133,
      "Fl": 1134,
      "Fra": 1135,
      "Gl": 1136,
      "Hear": 1137,
      "Hair": 1138,
      "Mi": 1139,
      "Mor": 1140,
      "Mic": 1141,
      "Maple": 1142,
      "Oak": 1143,
      "Pick": 1144,
      "Pres": 1145,
      "Paint": 1146,
      "Res": 1147,
      "Run": 1148,
      "Spi": 1149,
      "Sho": 1150,
      "Soft": 1151,
      "Wal": 1152,
      "Work": 1153,
      "ae": 1154,
      "aš": 1155,
      "awaan": 1156,
      "bat": 1157,
      "but": 1158,
      "ball": 1159,
      "cy": 1160,
      "caa": 1161,
      "cup": 1162,
      "ds": 1163,
      "des": 1164,
      "dent": 1165,
      "dress": 1166,
      "food": 1167,
      "foot": 1168,
      "gar": 1169,
      "gus": 1170,
      "gni": 1171,
      "hit": 1172,
      "hap": 1173,
      "hard": 1174,
      "hominy": 1175,
      "ihs": 1176,
      "jo": 1177,
      "ky": 1178,
      "kap": 1179,
      "koohk": 1180,
      "language": 1181,
      "ma": 1182,
      "mis": 1183,
      "mar": 1184,
      "may": 1185,
      "mell": 1186,
      "maht": 1187,
      "na": 1188,
      "nice": 1189,
      "open": 1190,
      "oides": 1191,
      "ps": 1192,
      "pit": 1193,
      "paan": 1194,
      "pul": 1195,
      "rit": 1196,
      "ron": 1197,
      "run": 1198,
      "right": 1199,
      "sit": 1200,
      "soo": 1201,
      "sus": 1202,
      "say": 1203,
      "saakan": 1204,
      "sho": 1205,
      "stop": 1206,
      "sleep": 1207,
      "snake": 1208,
      "tt": 1209,
      "ton": 1210,
      "tat": 1211,
      "turn": 1212,
      "uc": 1213,
      "uit": 1214,
      "uth": 1215,
      "ving": 1216,
      "vul": 1217,
      "war": 1218,
      "wor": 1219,
      "who": 1220,
      "warm": 1221,
      "where": 1222,
      "ye": 1223,
      "yl": 1224,
      "yaak": 1225,
      "aahši": 1226,
      "eer": 1227,
      "hkin": 1228,
      "iih": 1229,
      "iiht": 1230,
      "iiki": 1231,
      "onk": 1232,
      "onaakan": 1233,
      "ooš": 1234,
      "ooki": 1235,
      "isam": 1236,
      "ali": 1237,
      "alo": 1238,
      "aloo": 1239,
      "alus": 1240,
      "amee": 1241,
      "amii": 1242,
      "amon": 1243,
      "amaw": 1244,
      "enam": 1245,
      "enough": 1246,
      "akim": 1247,
      "this": 1248,
      "hsin": 1249,
      "hsam": 1250,
      "orse": 1251,
      "oria": 1252,
      "orthern": 1253,
      "waawi": 1254,
      "waawii": 1255,
      "eld": 1256,
      "else": 1257,
      "htee": 1258,
      "lect": 1259,
      "act": 1260,
      "acii": 1261,
      "weewee": 1262,
      "asp": 1263,
      "ilee": 1264,
      "ileni": 1265,
      "toe": 1266,
      "omest": 1267,
      "mix": 1268,
      "mihs": 1269,
      "miinci": 1270,
      "inkii": 1271,
      "inkwaakan": 1272,
      "adle": 1273,
      "šik": 1274,
      "trail": 1275,
      "trait": 1276,
      "otam": 1277,
      "urus": 1278,
      "change": 1279,
      "piici": 1280,
      "intaakan": 1281,
      "kwan": 1282,
      "kwii": 1283,
      "antee": 1284,
      "kinoon": 1285,
      "hsiinkwee": 1286,
      "waapink": 1287,
      "waapant": 1288,
      "older": 1289,
      "rape": 1290,
      "ahkihkw": 1291,
      "pakit": 1292,
      "coun": 1293,
      "cogni": 1294,
      "niil": 1295,
      "niihpi": 1296,
      "ctor": 1297,
      "hpen": 1298,
      "oonsaay": 1299,
      "soup": 1300,
      "meht": 1301,
      "inehkii": 1302,
      "Blue": 1303,
      "hands": 1304,
      "blue": 1305,
      "aweel": 1306,
      "aween": 1307,
      "pooni": 1308,
      "wani": 1309,
      "inaakwat": 1310,
      "angry": 1311,
      "paahp": 1312,
      "ahte": 1313,
      "canoe": 1314,
      "ife": 1315,
      "badly": 1316,
      "excl": 1317,
      "comes": 1318,
      "kotak": 1319,
      "brush": 1320,
      "feather": 1321,
      "oonsaawi": 1322,
      "melon": 1323,
      "Peoria": 1324,
      "birth": 1325,
      "poohki": 1326,
      "kisihs": 1327,
      "cord": 1328,
      "meehci": 1329,
      "Draw": 1330,
      "Little": 1331,
      "turtle": 1332,
      "imišaahkw": 1333,
      "Break": 1334,
      "eating": 1335,
      "aalakiinkwee": 1336,
      "witeehee": 1337,
      "Butter": 1338,
      "Woodpecker": 1339,
      "edicine": 1340,
      "paanko": 1341,
      "cognize": 1342,
      "Ad": 1343,
      "Bad": 1344,
      "Co": 1345,
      "Cap": 1346,
      "Cher": 1347,
      "Coun": 1348,
      "De": 1349,
      "Fi": 1350,
      "For": 1351,
      "Fly": 1352,
      "Fish": 1353,
      "Female": 1354,
      "Gather": 1355,
      "Great": 1356,
      "Hur": 1357,
      "Horn": 1358,
      "Ill": 1359,
      "Iron": 1360,
      "Jo": 1361,
      "Lacrosse": 1362,
      "Man": 1363,
      "Mer": 1364,
      "Mar": 1365,
      "Mil": 1366,
      "Moon": 1367,
      "Medicine": 1368,
      "No": 1369,
      "Nurse": 1370,
      "Ohi": 1371,
      "Pen": 1372,
      "Pad": 1373,
      "Rem": 1374,
      "Sw": 1375,
      "Too": 1376,
      "Tur": 1377,
      "Test": 1378,
      "az": 1379,
      "agr": 1380,
      "aug": 1381,
      "bur": 1382,
      "bone": 1383,
      "bab": 1384,
      "burn": 1385,
      "bark": 1386,
      "ctr": 1387,
      "cul": 1388,
      "call": 1389,
      "card": 1390,
      "ceek": 1391,
      "den": 1392,
      "dge": 1393,
      "dri": 1394,
      "dry": 1395,
      "dawn": 1396,
      "far": 1397,
      "fter": 1398,
      "fuse": 1399,
      "ger": 1400,
      "gro": 1401,
      "grape": 1402,
      "hat": 1403,
      "hen": 1404,
      "hun": 1405,
      "hickory": 1406,
      "kahk": 1407,
      "kah": 1408,
      "kaap": 1409,
      "kyaa": 1410,
      "know": 1411,
      "last": 1412,
      "mak": 1413,
      "ny": 1414,
      "nig": 1415,
      "naap": 1416,
      "nool": 1417,
      "nalaa": 1418,
      "opakat": 1419,
      "pow": 1420,
      "pah": 1421,
      "paahk": 1422,
      "pur": 1423,
      "pho": 1424,
      "port": 1425,
      "ring": 1426,
      "swi": 1427,
      "sac": 1428,
      "spe": 1429,
      "sol": 1430,
      "set": 1431,
      "sent": 1432,
      "skoon": 1433,
      "sandy": 1434,
      "seensee": 1435,
      "tw": 1436,
      "taan": 1437,
      "tap": 1438,
      "tahki": 1439,
      "ture": 1440,
      "table": 1441,
      "vo": 1442,
      "ven": 1443,
      "win": 1444,
      "wapi": 1445,
      "wind": 1446,
      "wimin": 1447,
      "xinus": 1448,
      "yohk": 1449,
      "šit": 1450,
      "aatam": 1451,
      "inensis": 1452,
      "eepi": 1453,
      "eewi": 1454,
      "anc": 1455,
      "anki": 1456,
      "hkam": 1457,
      "hkwee": 1458,
      "ita": 1459,
      "erv": 1460,
      "erent": 1461,
      "erous": 1462,
      "iihsi": 1463,
      "onor": 1464,
      "onci": 1465,
      "only": 1466,
      "imb": 1467,
      "imot": 1468,
      "ato": 1469,
      "ative": 1470,
      "oos": 1471,
      "ooci": 1472,
      "oohki": 1473,
      "oohsi": 1474,
      "ookan": 1475,
      "isinaakan": 1476,
      "alen": 1477,
      "alaakan": 1478,
      "aleel": 1479,
      "alia": 1480,
      "aleni": 1481,
      "alaankw": 1482,
      "aken": 1483,
      "akaawi": 1484,
      "thus": 1485,
      "arge": 1486,
      "arrow": 1487,
      "hsak": 1488,
      "hsaakan": 1489,
      "ori": 1490,
      "waah": 1491,
      "waahki": 1492,
      "piint": 1493,
      "wihk": 1494,
      "leave": 1495,
      "aakalaa": 1496,
      "acco": 1497,
      "weet": 1498,
      "weeli": 1499,
      "weeyo": 1500,
      "rope": 1501,
      "rock": 1502,
      "roug": 1503,
      "asin": 1504,
      "esi": 1505,
      "ican": 1506,
      "icii": 1507,
      "ili": 1508,
      "togr": 1509,
      "town": 1510,
      "towards": 1511,
      "ahka": 1512,
      "ahkwat": 1513,
      "ahkwaan": 1514,
      "ahkwan": 1515,
      "oma": 1516,
      "reach": 1517,
      "ute": 1518,
      "awiil": 1519,
      "kip": 1520,
      "ahšit": 1521,
      "pehci": 1522,
      "mihš": 1523,
      "aph": 1524,
      "aper": 1525,
      "ciinkwee": 1526,
      "cident": 1527,
      "oli": 1528,
      "ota": 1529,
      "sion": 1530,
      "ettle": 1531,
      "ura": 1532,
      "child": 1533,
      "eehši": 1534,
      "heav": 1535,
      "peel": 1536,
      "peech": 1537,
      "form": 1538,
      "stone": 1539,
      "eeni": 1540,
      "eenti": 1541,
      "being": 1542,
      "beaut": 1543,
      "lies": 1544,
      "like": 1545,
      "kinam": 1546,
      "lock": 1547,
      "locat": 1548,
      "aapo": 1549,
      "kani": 1550,
      "rive": 1551,
      "river": 1552,
      "eelotaw": 1553,
      "allow": 1554,
      "pers": 1555,
      "rains": 1556,
      "pakw": 1557,
      "pakaan": 1558,
      "niiš": 1559,
      "niimi": 1560,
      "teep": 1561,
      "maacii": 1562,
      "plan": 1563,
      "play": 1564,
      "quit": 1565,
      "quick": 1566,
      "estle": 1567,
      "manet": 1568,
      "mankiiš": 1569,
      "hkwan": 1570,
      "ootay": 1571,
      "illage": 1572,
      "Think": 1573,
      "mooy": 1574,
      "moohs": 1575,
      "ohkii": 1576,
      "weši": 1577,
      "alaam": 1578,
      "body": 1579,
      "maleeh": 1580,
      "paahpi": 1581,
      "paaskoon": 1582,
      "ahtawaan": 1583,
      "iful": 1584,
      "ifera": 1585,
      "Brass": 1586,
      "clothing": 1587,
      "most": 1588,
      "aayo": 1589,
      "offee": 1590,
      "toopi": 1591,
      "Shoot": 1592,
      "Indian": 1593,
      "aves": 1594,
      "Green": 1595,
      "kotee": 1596,
      "fishing": 1597,
      "neeht": 1598,
      "osa": 1599,
      "when": 1600,
      "nepw": 1601,
      "care": 1602,
      "carol": 1603,
      "masaan": 1604,
      "panki": 1605,
      "aalhsoohk": 1606,
      "miihkim": 1607,
      "Dog": 1608,
      "proper": 1609,
      "akiihi": 1610,
      "kihkiinkwee": 1611,
      "mišaahkw": 1612,
      "glass": 1613,
      "eye": 1614,
      "covers": 1615,
      "Elk": 1616,
      "slowly": 1617,
      "understand": 1618,
      "flows": 1619,
      "Apple": 1620,
      "Appear": 1621,
      "Boil": 1622,
      "Person": 1623,
      "Roast": 1624,
      "kolee": 1625,
      "wrongly": 1626,
      "hsetoo": 1627,
      "kocihtam": 1628,
      "difficul": 1629,
      "firm": 1630,
      "hurry": 1631,
      "neekawi": 1632,
      "party": 1633,
      "tastes": 1634,
      "inois": 1635,
      "mihšiiwi": 1636,
      "virginiana": 1637,
      "Collect": 1638,
      "portrait": 1639,
      "leader": 1640,
      "Fraxinus": 1641,
      "Walnut": 1642,
      "paankosaakan": 1643,
      "Illinois": 1644,
      "Ohio": 1645,
      "Paddle": 1646,
      "nalaawahki": 1647,
      "photogr": 1648,
      "speci": 1649,
      "aakalaahšim": 1650,
      "beautiful": 1651,
      "quickly": 1652,
      "paaskoonti": 1653,
      "difficult": 1654,
      "photograph": 1655,
      "Ag": 1656,
      "All": 1657,
      "After": 1658,
      "Bite": 1659,
      "Ca": 1660,
      "Cl": 1661,
      "Cy": 1662,
      "Cal": 1663,
      "Cor": 1664,
      "Cle": 1665,
      "Center": 1666,
      "Coffee": 1667,
      "Dig": 1668,
      "Dou": 1669,
      "Dress": 1670,
      "Ex": 1671,
      "Ear": 1672,
      "East": 1673,
      "Egg": 1674,
      "Fe": 1675,
      "Fro": 1676,
      "Fol": 1677,
      "Fet": 1678,
      "Fall": 1679,
      "Fork": 1680,
      "Fox": 1681,
      "Gen": 1682,
      "Ground": 1683,
      "Goose": 1684,
      "Her": 1685,
      "Hel": 1686,
      "How": 1687,
      "Hand": 1688,
      "Hide": 1689,
      "Hickory": 1690,
      "Horse": 1691,
      "Ice": 1692,
      "Jump": 1693,
      "Kn": 1694,
      "Kill": 1695,
      "Kans": 1696,
      "Lam": 1697,
      "Lay": 1698,
      "Long": 1699,
      "Live": 1700,
      "Lie": 1701,
      "Mon": 1702,
      "Mel": 1703,
      "May": 1704,
      "Northern": 1705,
      "Ok": 1706,
      "One": 1707,
      "Off": 1708,
      "Por": 1709,
      "Pro": 1710,
      "Pre": 1711,
      "Pot": 1712,
      "Rub": 1713,
      "Racc": 1714,
      "Sc": 1715,
      "See": 1716,
      "Sal": 1717,
      "Sto": 1718,
      "Sun": 1719,
      "Sci": 1720,
      "Sand": 1721,
      "Sur": 1722,
      "Squ": 1723,
      "Sass": 1724,
      "Scr": 1725,
      "Snow": 1726,
      "Stri": 1727,
      "Sense": 1728,
      "Smell": 1729,
      "Tat": 1730,
      "Twi": 1731,
      "Tra": 1732,
      "Trib": 1733,
      "Tea": 1734,
      "Vit": 1735,
      "Vul": 1736,
      "We": 1737,
      "War": 1738,
      "Wab": 1739,
      "Year": 1740,
      "Yellow": 1741,
      "au": 1742,
      "ape": 1743,
      "aff": 1744,
      "afr": 1745,
      "bu": 1746,
      "bus": 1747,
      "bass": 1748,
      "bush": 1749,
      "bacco": 1750,
      "cc": 1751,
      "cur": 1752,
      "caahkw": 1753,
      "cinaakosi": 1754,
      "cross": 1755,
      "da": 1756,
      "don": 1757,
      "del": 1758,
      "dance": 1759,
      "dark": 1760,
      "deer": 1761,
      "domest": 1762,
      "eas": 1763,
      "ever": 1764,
      "ehki": 1765,
      "every": 1766,
      "egus": 1767,
      "fam": 1768,
      "fun": 1769,
      "fear": 1770,
      "father": 1771,
      "feet": 1772,
      "gn": 1773,
      "gu": 1774,
      "gin": 1775,
      "gir": 1776,
      "gard": 1777,
      "gather": 1778,
      "game": 1779,
      "hy": 1780,
      "hus": 1781,
      "has": 1782,
      "how": 1783,
      "haakan": 1784,
      "hpii": 1785,
      "hpee": 1786,
      "hill": 1787,
      "hip": 1788,
      "hang": 1789,
      "hide": 1790,
      "ihk": 1791,
      "ken": 1792,
      "kak": 1793,
      "kaak": 1794,
      "kaw": 1795,
      "kaal": 1796,
      "kwaap": 1797,
      "kahki": 1798,
      "kitee": 1799,
      "kaahkii": 1800,
      "kaakii": 1801,
      "kaši": 1802,
      "kaalakiinkwee": 1803,
      "lit": 1804,
      "lat": 1805,
      "lah": 1806,
      "lap": 1807,
      "lot": 1808,
      "lacrosse": 1809,
      "mun": 1810,
      "mad": 1811,
      "mool": 1812,
      "maci": 1813,
      "much": 1814,
      "maple": 1815,
      "nen": 1816,
      "ning": 1817,
      "nay": 1818,
      "net": 1819,
      "nata": 1820,
      "oak": 1821,
      "ošam": 1822,
      "pt": 1823,
      "paak": 1824,
      "paw": 1825,
      "pay": 1826,
      "paahkw": 1827,
      "past": 1828,
      "pahs": 1829,
      "pres": 1830,
      "path": 1831,
      "paint": 1832,
      "ru": 1833,
      "ren": 1834,
      "rent": 1835,
      "rest": 1836,
      "root": 1837,
      "rub": 1838,
      "sl": 1839,
      "spi": 1840,
      "sur": 1841,
      "sick": 1842,
      "seek": 1843,
      "snow": 1844,
      "saaki": 1845,
      "saakii": 1846,
      "speech": 1847,
      "tis": 1848,
      "ten": 1849,
      "tak": 1850,
      "taakan": 1851,
      "tall": 1852,
      "toohk": 1853,
      "treat": 1854,
      "uct": 1855,
      "uice": 1856,
      "vest": 1857,
      "village": 1858,
      "wl": 1859,
      "wear": 1860,
      "walk": 1861,
      "wash": 1862,
      "yr": 1863,
      "ys": 1864,
      "yom": 1865,
      "yaahkwee": 1866,
      "zz": 1867,
      "zen": 1868,
      "šin": 1869,
      "šaahkw": 1870,
      "aawee": 1871,
      "aamaa": 1872,
      "aayaa": 1873,
      "aatii": 1874,
      "aaha": 1875,
      "inc": 1876,
      "inside": 1877,
      "iniiki": 1878,
      "eey": 1879,
      "eehk": 1880,
      "eehs": 1881,
      "eešaakan": 1882,
      "anci": 1883,
      "anti": 1884,
      "another": 1885,
      "hkaw": 1886,
      "itoo": 1887,
      "itaakan": 1888,
      "itch": 1889,
      "ition": 1890,
      "itik": 1891,
      "erc": 1892,
      "ery": 1893,
      "error": 1894,
      "ond": 1895,
      "ontee": 1896,
      "imw": 1897,
      "atam": 1898,
      "ataahp": 1899,
      "atten": 1900,
      "oof": 1901,
      "oor": 1902,
      "oow": 1903,
      "oowi": 1904,
      "iss": 1905,
      "isiip": 1906,
      "aloon": 1907,
      "alli": 1908,
      "allo": 1909,
      "alous": 1910,
      "amw": 1911,
      "ampi": 1912,
      "amation": 1913,
      "ening": 1914,
      "aks": 1915,
      "aking": 1916,
      "akay": 1917,
      "akook": 1918,
      "akimin": 1919,
      "akinci": 1920,
      "thy": 1921,
      "thick": 1922,
      "thorn": 1923,
      "ari": 1924,
      "arp": 1925,
      "arter": 1926,
      "arvest": 1927,
      "hsah": 1928,
      "waak": 1929,
      "waahs": 1930,
      "waaki": 1931,
      "waahkw": 1932,
      "waayon": 1933,
      "pihki": 1934,
      "pict": 1935,
      "pipoon": 1936,
      "wipe": 1937,
      "wick": 1938,
      "wihsen": 1939,
      "wikolee": 1940,
      "htaakan": 1941,
      "leg": 1942,
      "lehši": 1943,
      "aakaan": 1944,
      "acher": 1945,
      "week": 1946,
      "weep": 1947,
      "weeki": 1948,
      "weekan": 1949,
      "ros": 1950,
      "rot": 1951,
      "road": 1952,
      "ask": 1953,
      "esam": 1954,
      "escul": 1955,
      "ession": 1956,
      "ict": 1957,
      "icy": 1958,
      "icus": 1959,
      "ilaan": 1960,
      "ilooki": 1961,
      "touch": 1962,
      "ahkisinaakan": 1963,
      "omit": 1964,
      "omiš": 1965,
      "ref": 1966,
      "replace": 1967,
      "awiihk": 1968,
      "kiinaak": 1969,
      "kihci": 1970,
      "ower": 1971,
      "ahp": 1972,
      "pet": 1973,
      "pehte": 1974,
      "aahkwaap": 1975,
      "aahkoons": 1976,
      "aahkatw": 1977,
      "ung": 1978,
      "unus": 1979,
      "untain": 1980,
      "mid": 1981,
      "miht": 1982,
      "mire": 1983,
      "mihc": 1984,
      "appre": 1985,
      "cial": 1986,
      "ciinkwi": 1987,
      "olee": 1988,
      "ollar": 1989,
      "Begin": 1990,
      "adder": 1991,
      "šikan": 1992,
      "šiko": 1993,
      "šiinkwee": 1994,
      "kiimi": 1995,
      "kiilo": 1996,
      "kiihp": 1997,
      "trad": 1998,
      "trip": 1999,
      "otoo": 2000,
      "otton": 2001,
      "sibl": 2002,
      "size": 2003,
      "cher": 2004,
      "sex": 2005,
      "secre": 2006,
      "sewn": 2007,
      "ird": 2008,
      "irie": 2009,
      "irrel": 2010,
      "ign": 2011,
      "eehi": 2012,
      "eehwi": 2013,
      "them": 2014,
      "peewaali": 2015,
      "ulata": 2016,
      "idden": 2017,
      "fort": 2018,
      "sts": 2019,
      "start": 2020,
      "tired": 2021,
      "tipeel": 2022,
      "eenhs": 2023,
      "kwa": 2024,
      "hobat": 2025,
      "ante": 2026,
      "beak": 2027,
      "life": 2028,
      "kind": 2029,
      "kinoos": 2030,
      "cking": 2031,
      "near": 2032,
      "outside": 2033,
      "rairie": 2034,
      "siihs": 2035,
      "ahkihki": 2036,
      "ceph": 2037,
      "wiil": 2038,
      "wiiciil": 2039,
      "acked": 2040,
      "ember": 2041,
      "tawi": 2042,
      "tail": 2043,
      "cour": 2044,
      "kop": 2045,
      "kohs": 2046,
      "kohset": 2047,
      "teeth": 2048,
      "maaw": 2049,
      "shin": 2050,
      "plow": 2051,
      "plum": 2052,
      "rows": 2053,
      "miišim": 2054,
      "deal": 2055,
      "dead": 2056,
      "hpoon": 2057,
      "hšihtoo": 2058,
      "mind": 2059,
      "minoot": 2060,
      "frozen": 2061,
      "illa": 2062,
      "iteeheelotaw": 2063,
      "Thorn": 2064,
      "Thunder": 2065,
      "ippe": 2066,
      "tep": 2067,
      "tehs": 2068,
      "tekwee": 2069,
      "ffalo": 2070,
      "moohsi": 2071,
      "moohsw": 2072,
      "waantii": 2073,
      "meemee": 2074,
      "meeting": 2075,
      "pole": 2076,
      "pose": 2077,
      "point": 2078,
      "poss": 2079,
      "pihkwee": 2080,
      "pihkontee": 2081,
      "Stand": 2082,
      "Stone": 2083,
      "ohkaa": 2084,
      "alaamin": 2085,
      "pilakiihi": 2086,
      "aweem": 2087,
      "boy": 2088,
      "board": 2089,
      "iece": 2090,
      "Crata": 2091,
      "ift": 2092,
      "ways": 2093,
      "yonam": 2094,
      "ago": 2095,
      "agle": 2096,
      "cimwi": 2097,
      "close": 2098,
      "move": 2099,
      "moke": 2100,
      "atoohpoon": 2101,
      "nahi": 2102,
      "nahik": 2103,
      "phone": 2104,
      "anseens": 2105,
      "Show": 2106,
      "dog": 2107,
      "kamw": 2108,
      "htanwi": 2109,
      "Lead": 2110,
      "avel": 2111,
      "exam": 2112,
      "noonti": 2113,
      "pleas": 2114,
      "Grand": 2115,
      "Move": 2116,
      "comple": 2117,
      "kotaahk": 2118,
      "taaht": 2119,
      "Plum": 2120,
      "bright": 2121,
      "bridge": 2122,
      "clean": 2123,
      "fec": 2124,
      "ilding": 2125,
      "kihkaapiik": 2126,
      "oonsaawimin": 2127,
      "Head": 2128,
      "carry": 2129,
      "pinši": 2130,
      "miihkweel": 2131,
      "broken": 2132,
      "front": 2133,
      "fruit": 2134,
      "iled": 2135,
      "nihs": 2136,
      "Buffalo": 2137,
      "breath": 2138,
      "field": 2139,
      "glish": 2140,
      "kili": 2141,
      "mats": 2142,
      "park": 2143,
      "kiihkaapii": 2144,
      "ciilitee": 2145,
      "Arrive": 2146,
      "Love": 2147,
      "poor": 2148,
      "tahkink": 2149,
      "Comb": 2150,
      "Common": 2151,
      "Hope": 2152,
      "eyes": 2153,
      "kitem": 2154,
      "kisihsiinkwee": 2155,
      "mistaken": 2156,
      "aahsantee": 2157,
      "thinking": 2158,
      "Elder": 2159,
      "Write": 2160,
      "Wrestle": 2161,
      "meehc": 2162,
      "nataweel": 2163,
      "nakaani": 2164,
      "aacimwi": 2165,
      "electr": 2166,
      "Drink": 2167,
      "Prunus": 2168,
      "Recognize": 2169,
      "Refuse": 2170,
      "create": 2171,
      "highly": 2172,
      "naanoohk": 2173,
      "nipwaayon": 2174,
      "pelakii": 2175,
      "swallow": 2176,
      "ledge": 2177,
      "kiilhs": 2178,
      "kiilhsw": 2179,
      "healer": 2180,
      "Lithobat": 2181,
      "after": 2182,
      "finished": 2183,
      "number": 2184,
      "noohkapi": 2185,
      "ohseeni": 2186,
      "turkey": 2187,
      "hearing": 2188,
      "different": 2189,
      "Ask": 2190,
      "Canis": 2191,
      "bowl": 2192,
      "hurt": 2193,
      "katoohw": 2194,
      "looks": 2195,
      "occident": 2196,
      "patahk": 2197,
      "seeki": 2198,
      "taste": 2199,
      "ahiko": 2200,
      "firewood": 2201,
      "virginianus": 2202,
      "Chop": 2203,
      "Meas": 2204,
      "Musk": 2205,
      "Neck": 2206,
      "Pipe": 2207,
      "color": 2208,
      "feelings": 2209,
      "hawk": 2210,
      "ject": 2211,
      "jealous": 2212,
      "ahkweehs": 2213,
      "aapiikasi": 2214,
      "myaamia": 2215,
      "Miami": 2216,
      "Respect": 2217,
      "Spirit": 2218,
      "ašiihki": 2219,
      "cupine": 2220,
      "garis": 2221,
      "happy": 2222,
      "joke": 2223,
      "koohkooš": 2224,
      "vulgaris": 2225,
      "words": 2226,
      "hkinaahkw": 2227,
      "council": 2228,
      "hpenal": 2229,
      "mehtohseeni": 2230,
      "exclamation": 2231,
      "Cherry": 2232,
      "Hurt": 2233,
      "Remember": 2234,
      "Tooth": 2235,
      "Turkey": 2236,
      "agree": 2237,
      "hunting": 2238,
      "purpose": 2239,
      "swift": 2240,
      "eepikw": 2241,
      "alenas": 2242,
      "piintik": 2243,
      "located": 2244,
      "Follow": 2245,
      "Fetch": 2246,
      "Knife": 2247,
      "Kansas": 2248,
      "Oklah": 2249,
      "Potato": 2250,
      "Rubus": 2251,
      "Raccoon": 2252,
      "Sassafr": 2253,
      "Tattoo": 2254,
      "Tribal": 2255,
      "Vitis": 2256,
      "Wabash": 2257,
      "ccasin": 2258,
      "current": 2259,
      "girl": 2260,
      "kaakiihsit": 2261,
      "little": 2262,
      "rubra": 2263,
      "saakiiwee": 2264,
      "attention": 2265,
      "picture": 2266,
      "wicked": 2267,
      "sibling": 2268,
      "secret": 2269,
      "cephalus": 2270,
      "Crataegus": 2271,
      "mistakenly": 2272,
      "electric": 2273,
      "Lithobates": 2274,
      "occidentalis": 2275,
      "Oklahoma": 2276,
      "Sassafras": 2277,
      "Ab": 2278,
      "Abo": 2279,
      "Acer": 2280,
      "Att": 2281,
      "Aescul": 2282,
      "Bit": 2283,
      "Bur": 2284,
      "Bag": 2285,
      "Bush": 2286,
      "Bob": 2287,
      "Beet": 2288,
      "Bath": 2289,
      "Base": 2290,
      "Bark": 2291,
      "Bison": 2292,
      "Braid": 2293,
      "Bask": 2294,
      "Bird": 2295,
      "Con": 2296,
      "Cam": 2297,
      "Chim": 2298,
      "Cook": 2299,
      "Cast": 2300,
      "Card": 2301,
      "Cool": 2302,
      "Crib": 2303,
      "Cuc": 2304,
      "Cotton": 2305,
      "Di": 2306,
      "Dam": 2307,
      "Day": 2308,
      "Dry": 2309,
      "Dip": 2310,
      "Dew": 2311,
      "Dust": 2312,
      "Drop": 2313,
      "Dream": 2314,
      "Domest": 2315,
      "Door": 2316,
      "Ey": 2317,
      "Eel": 2318,
      "Ele": 2319,
      "Every": 2320,
      "Eye": 2321,
      "Eagle": 2322,
      "Fal": 2323,
      "Far": 2324,
      "Fut": 2325,
      "Fur": 2326,
      "Fry": 2327,
      "Feel": 2328,
      "Fool": 2329,
      "Fight": 2330,
      "Flow": 2331,
      "Farm": 2332,
      "Fail": 2333,
      "Find": 2334,
      "Fort": 2335,
      "Gu": 2336,
      "Gar": 2337,
      "Gun": 2338,
      "Gig": 2339,
      "Glo": 2340,
      "Hi": 2341,
      "Hit": 2342,
      "Ham": 2343,
      "Hus": 2344,
      "Haw": 2345,
      "Hir": 2346,
      "Hone": 2347,
      "Hum": 2348,
      "Hack": 2349,
      "Hyl": 2350,
      "Honor": 2351,
      "Iv": 2352,
      "Iow": 2353,
      "Jug": 2354,
      "Jew": 2355,
      "Juice": 2356,
      "Know": 2357,
      "Key": 2358,
      "Kettle": 2359,
      "Kitch": 2360,
      "Ly": 2361,
      "Lem": 2362,
      "Lear": 2363,
      "List": 2364,
      "Less": 2365,
      "Laug": 2366,
      "Large": 2367,
      "Ma": 2368,
      "Men": 2369,
      "Mac": 2370,
      "Met": 2371,
      "Mul": 2372,
      "Mana": 2373,
      "Myaa": 2374,
      "Mist": 2375,
      "Marm": 2376,
      "Mush": 2377,
      "Male": 2378,
      "Meet": 2379,
      "Nut": 2380,
      "Nail": 2381,
      "New": 2382,
      "Ol": 2383,
      "Open": 2384,
      "Owe": 2385,
      "Owl": 2386,
      "Pan": 2387,
      "Par": 2388,
      "Pic": 2389,
      "Pow": 2390,
      "Pay": 2391,
      "Pol": 2392,
      "Pig": 2393,
      "Pine": 2394,
      "Peach": 2395,
      "Pull": 2396,
      "Ra": 2397,
      "Rake": 2398,
      "Ret": 2399,
      "Root": 2400,
      "Rice": 2401,
      "Rosa": 2402,
      "Roof": 2403,
      "Son": 2404,
      "Sap": 2405,
      "Set": 2406,
      "Sell": 2407,
      "Sum": 2408,
      "Sup": 2409,
      "Sli": 2410,
      "Sta": 2411,
      "Ste": 2412,
      "Shave": 2413,
      "Swe": 2414,
      "Spoon": 2415,
      "Spr": 2416,
      "Sleep": 2417,
      "Snake": 2418,
      "Smoke": 2419,
      "Tw": 2420,
      "Tim": 2421,
      "Tom": 2422,
      "Try": 2423,
      "Tick": 2424,
      "Teach": 2425,
      "Turn": 2426,
      "Tippe": 2427,
      "Ul": 2428,
      "Vi": 2429,
      "Vis": 2430,
      "Wi": 2431,
      "Wis": 2432,
      "Wor": 2433,
      "Wing": 2434,
      "Wake": 2435,
      "Well": 2436,
      "Want": 2437,
      "Where": 2438,
      "Wound": 2439,
      "Wax": 2440,
      "Weed": 2441,
      "Wait": 2442,
      "You": 2443,
      "aight": 2444,
      "awaal": 2445,
      "bi": 2446,
      "bt": 2447,
      "bit": 2448,
      "bel": 2449,
      "bell": 2450,
      "bri": 2451,
      "bate": 2452,
      "bull": 2453,
      "bud": 2454,
      "bath": 2455,
      "bare": 2456,
      "buck": 2457,
      "bison": 2458,
      "braid": 2459,
      "block": 2460,
      "baking": 2461,
      "coo": 2462,
      "cam": 2463,
      "ces": 2464,
      "cow": 2465,
      "cti": 2466,
      "ceen": 2467,
      "cab": 2468,
      "cool": 2469,
      "cyon": 2470,
      "citeehee": 2471,
      "caani": 2472,
      "cens": 2473,
      "cahkihkw": 2474,
      "dat": 2475,
      "dor": 2476,
      "dang": 2477,
      "deep": 2478,
      "damp": 2479,
      "dense": 2480,
      "dream": 2481,
      "danc": 2482,
      "dollar": 2483,
      "ef": 2484,
      "ehs": 2485,
      "ead": 2486,
      "egr": 2487,
      "ešam": 2488,
      "ekaa": 2489,
      "ease": 2490,
      "ekwii": 2491,
      "fo": 2492,
      "fus": 2493,
      "fic": 2494,
      "fut": 2495,
      "fold": 2496,
      "fool": 2497,
      "farm": 2498,
      "full": 2499,
      "find": 2500,
      "feed": 2501,
      "female": 2502,
      "gone": 2503,
      "gue": 2504,
      "goose": 2505,
      "gative": 2506,
      "grows": 2507,
      "hor": 2508,
      "hwi": 2509,
      "hic": 2510,
      "hol": 2511,
      "hig": 2512,
      "home": 2513,
      "hind": 2514,
      "horse": 2515,
      "honor": 2516,
      "hallo": 2517,
      "harvest": 2518,
      "hidden": 2519,
      "iv": 2520,
      "iši": 2521,
      "iet": 2522,
      "ikw": 2523,
      "ibe": 2524,
      "ikaan": 2525,
      "ihp": 2526,
      "iinkwee": 2527,
      "iini": 2528,
      "iatus": 2529,
      "kay": 2530,
      "kint": 2531,
      "kapi": 2532,
      "kawi": 2533,
      "kist": 2534,
      "keep": 2535,
      "kahaakan": 2536,
      "keet": 2537,
      "kakii": 2538,
      "kyaal": 2539,
      "kwaahk": 2540,
      "kaaki": 2541,
      "kici": 2542,
      "kont": 2543,
      "kimot": 2544,
      "kaayo": 2545,
      "ler": 2546,
      "lak": 2547,
      "lus": 2548,
      "lup": 2549,
      "lab": 2550,
      "lans": 2551,
      "laz": 2552,
      "mp": 2553,
      "mor": 2554,
      "maak": 2555,
      "mac": 2556,
      "mah": 2557,
      "mand": 2558,
      "mint": 2559,
      "maal": 2560,
      "mood": 2561,
      "meen": 2562,
      "meel": 2563,
      "mem": 2564,
      "mahs": 2565,
      "mach": 2566,
      "mother": 2567,
      "misi": 2568,
      "mitee": 2569,
      "macro": 2570,
      "mahsen": 2571,
      "more": 2572,
      "mootay": 2573,
      "nx": 2574,
      "non": 2575,
      "nim": 2576,
      "nam": 2577,
      "nic": 2578,
      "naal": 2579,
      "neen": 2580,
      "naham": 2581,
      "nail": 2582,
      "name": 2583,
      "naloo": 2584,
      "northern": 2585,
      "noohki": 2586,
      "oh": 2587,
      "oki": 2588,
      "ohki": 2589,
      "obe": 2590,
      "ocii": 2591,
      "ohp": 2592,
      "ople": 2593,
      "ocher": 2594,
      "pa": 2595,
      "pu": 2596,
      "pis": 2597,
      "ppi": 2598,
      "pas": 2599,
      "pom": 2600,
      "pse": 2601,
      "pant": 2602,
      "plo": 2603,
      "pahki": 2604,
      "poot": 2605,
      "papi": 2606,
      "pale": 2607,
      "pahtoo": 2608,
      "paaki": 2609,
      "pity": 2610,
      "paank": 2611,
      "prairie": 2612,
      "race": 2613,
      "rcle": 2614,
      "ration": 2615,
      "sa": 2616,
      "saa": 2617,
      "sin": 2618,
      "sam": 2619,
      "sing": 2620,
      "sel": 2621,
      "saak": 2622,
      "sap": 2623,
      "sink": 2624,
      "sum": 2625,
      "slo": 2626,
      "squ": 2627,
      "spil": 2628,
      "sure": 2629,
      "sland": 2630,
      "same": 2631,
      "scar": 2632,
      "sub": 2633,
      "sity": 2634,
      "such": 2635,
      "sugar": 2636,
      "sense": 2637,
      "suff": 2638,
      "smell": 2639,
      "syl": 2640,
      "sweet": 2641,
      "tu": 2642,
      "tin": 2643,
      "tel": 2644,
      "teeh": 2645,
      "tent": 2646,
      "taap": 2647,
      "tong": 2648,
      "test": 2649,
      "till": 2650,
      "talk": 2651,
      "tist": 2652,
      "tica": 2653,
      "tely": 2654,
      "tty": 2655,
      "ual": 2656,
      "uence": 2657,
      "vat": 2658,
      "vis": 2659,
      "ves": 2660,
      "vate": 2661,
      "vive": 2662,
      "wal": 2663,
      "wing": 2664,
      "wet": 2665,
      "wish": 2666,
      "waci": 2667,
      "whole": 2668,
      "xt": 2669,
      "yes": 2670,
      "yand": 2671,
      "yaahkw": 2672,
      "you": 2673,
      "yawi": 2674,
      "zibe": 2675,
      "": 2676,
      "šinaakosi": 2677,
      "šileni": 2678,
      "aac": 2679,
      "aah": 2680,
      "aato": 2681,
      "aaši": 2682,
      "aati": 2683,
      "aamin": 2684,
      "aamiš": 2685,
      "aamaawi": 2686,
      "inee": 2687,
      "inch": 2688,
      "inum": 2689,
      "inate": 2690,
      "incin": 2691,
      "inalis": 2692,
      "inanimate": 2693,
      "initik": 2694,
      "eem": 2695,
      "eewaa": 2696,
      "eeci": 2697,
      "eesi": 2698,
      "eech": 2699,
      "eetee": 2700,
      "eehkw": 2701,
      "eehsee": 2702,
      "eeze": 2703,
      "eemihk": 2704,
      "ano": 2705,
      "aner": 2706,
      "anii": 2707,
      "anaahk": 2708,
      "anch": 2709,
      "angr": 2710,
      "ancon": 2711,
      "antop": 2712,
      "ankamw": 2713,
      "hke": 2714,
      "hkan": 2715,
      "hkon": 2716,
      "hkim": 2717,
      "its": 2718,
      "iter": 2719,
      "iton": 2720,
      "itaw": 2721,
      "ers": 2722,
      "erve": 2723,
      "erace": 2724,
      "iiy": 2725,
      "iihsit": 2726,
      "iiwiil": 2727,
      "onica": 2728,
      "ontehs": 2729,
      "immon": 2730,
      "imiti": 2731,
      "import": 2732,
      "imiihsit": 2733,
      "atak": 2734,
      "ator": 2735,
      "atahk": 2736,
      "ataahk": 2737,
      "atay": 2738,
      "atch": 2739,
      "atik": 2740,
      "atomi": 2741,
      "ataawee": 2742,
      "ateehi": 2743,
      "oop": 2744,
      "ookii": 2745,
      "oosi": 2746,
      "ooti": 2747,
      "ootee": 2748,
      "isc": 2749,
      "isw": 2750,
      "isaakan": 2751,
      "isher": 2752,
      "alb": 2753,
      "alwaa": 2754,
      "alaak": 2755,
      "also": 2756,
      "alosi": 2757,
      "alwaan": 2758,
      "alik": 2759,
      "alakii": 2760,
      "aloft": 2761,
      "alaank": 2762,
      "alwaam": 2763,
      "aleew": 2764,
      "always": 2765,
      "ama": 2766,
      "amin": 2767,
      "amwi": 2768,
      "amoon": 2769,
      "amed": 2770,
      "ampen": 2771,
      "amiš": 2772,
      "american": 2773,
      "amble": 2774,
      "amataahk": 2775,
      "ene": 2776,
      "enjo": 2777,
      "akit": 2778,
      "aker": 2779,
      "akint": 2780,
      "akaay": 2781,
      "akintam": 2782,
      "akaaw": 2783,
      "akimišaahkw": 2784,
      "thin": 2785,
      "than": 2786,
      "thaw": 2787,
      "thank": 2788,
      "thsoo": 2789,
      "throug": 2790,
      "thicus": 2791,
      "aris": 2792,
      "hseens": 2793,
      "ors": 2794,
      "oric": 2795,
      "orate": 2796,
      "orange": 2797,
      "waaw": 2798,
      "waay": 2799,
      "waami": 2800,
      "waapee": 2801,
      "waatee": 2802,
      "waahsee": 2803,
      "waapik": 2804,
      "waatam": 2805,
      "waacimwi": 2806,
      "pihs": 2807,
      "pias": 2808,
      "pici": 2809,
      "pick": 2810,
      "pikaan": 2811,
      "pihkw": 2812,
      "piinkwee": 2813,
      "pihci": 2814,
      "piinti": 2815,
      "pihsin": 2816,
      "elaw": 2817,
      "elid": 2818,
      "elash": 2819,
      "elnut": 2820,
      "eleehsi": 2821,
      "wih": 2822,
      "wire": 2823,
      "wiins": 2824,
      "ustr": 2825,
      "usive": 2826,
      "hter": 2827,
      "htil": 2828,
      "htol": 2829,
      "les": 2830,
      "leta": 2831,
      "less": 2832,
      "legg": 2833,
      "leop": 2834,
      "leaves": 2835,
      "aakwaam": 2836,
      "aakeelim": 2837,
      "aca": 2838,
      "weed": 2839,
      "weem": 2840,
      "weekin": 2841,
      "weekaan": 2842,
      "roy": 2843,
      "rodon": 2844,
      "asii": 2845,
      "asiip": 2846,
      "asaahsi": 2847,
      "icer": 2848,
      "icol": 2849,
      "icho": 2850,
      "icated": 2851,
      "illo": 2852,
      "ilob": 2853,
      "ilaakii": 2854,
      "ility": 2855,
      "tos": 2856,
      "toss": 2857,
      "toides": 2858,
      "toont": 2859,
      "tobacco": 2860,
      "ahkatw": 2861,
      "rey": 2862,
      "rect": 2863,
      "return": 2864,
      "recognize": 2865,
      "uts": 2866,
      "awa": 2867,
      "awe": 2868,
      "awl": 2869,
      "awat": 2870,
      "awahki": 2871,
      "awatoo": 2872,
      "awiip": 2873,
      "awiiwiil": 2874,
      "aana": 2875,
      "aantee": 2876,
      "aancin": 2877,
      "kiin": 2878,
      "kion": 2879,
      "kihs": 2880,
      "kihš": 2881,
      "kiinši": 2882,
      "oona": 2883,
      "ahee": 2884,
      "ahoo": 2885,
      "ahšikan": 2886,
      "ahotoo": 2887,
      "peh": 2888,
      "pehk": 2889,
      "pemi": 2890,
      "pehki": 2891,
      "pehkii": 2892,
      "pehtaw": 2893,
      "people": 2894,
      "aahki": 2895,
      "aahko": 2896,
      "aahkom": 2897,
      "aahkaw": 2898,
      "aahkot": 2899,
      "aahkwat": 2900,
      "aahkosi": 2901,
      "ayiil": 2902,
      "ayaapi": 2903,
      "ayaakwaam": 2904,
      "unch": 2905,
      "unmar": 2906,
      "mia": 2907,
      "miin": 2908,
      "mile": 2909,
      "migr": 2910,
      "miami": 2911,
      "mikici": 2912,
      "miration": 2913,
      "apes": 2914,
      "apple": 2915,
      "ciink": 2916,
      "cifer": 2917,
      "cipit": 2918,
      "circle": 2919,
      "olerace": 2920,
      "olakit": 2921,
      "Bean": 2922,
      "Bear": 2923,
      "Bead": 2924,
      "Beta": 2925,
      "inks": 2926,
      "ada": 2927,
      "admiration": 2928,
      "šihi": 2929,
      "kiim": 2930,
      "kiiw": 2931,
      "kiikii": 2932,
      "kiili": 2933,
      "kiipihk": 2934,
      "kiihkii": 2935,
      "kiiweeli": 2936,
      "kiihpee": 2937,
      "kiiyaahkwee": 2938,
      "kiihtil": 2939,
      "edly": 2940,
      "trick": 2941,
      "trade": 2942,
      "truth": 2943,
      "travel": 2944,
      "trilob": 2945,
      "andon": 2946,
      "sive": 2947,
      "sides": 2948,
      "sippi": 2949,
      "siinitik": 2950,
      "vern": 2951,
      "hkihsen": 2952,
      "eta": 2953,
      "etc": 2954,
      "urd": 2955,
      "uri": 2956,
      "urge": 2957,
      "chin": 2958,
      "char": 2959,
      "chool": 2960,
      "cheek": 2961,
      "chill": 2962,
      "chain": 2963,
      "charge": 2964,
      "piiwi": 2965,
      "piimin": 2966,
      "piikinam": 2967,
      "sem": 2968,
      "seph": 2969,
      "separ": 2970,
      "irt": 2971,
      "irst": 2972,
      "irmat": 2973,
      "igera": 2974,
      "igator": 2975,
      "intii": 2976,
      "intens": 2977,
      "oneâ": 2978,
      "eehw": 2979,
      "eehpin": 2980,
      "aalint": 2981,
      "aalaahši": 2982,
      "aalamon": 2983,
      "aalahkwat": 2984,
      "hew": 2985,
      "hemp": 2986,
      "peepak": 2987,
      "peekit": 2988,
      "peeweeyo": 2989,
      "ulis": 2990,
      "ulum": 2991,
      "ulate": 2992,
      "ida": 2993,
      "ider": 2994,
      "idle": 2995,
      "ident": 2996,
      "idae": 2997,
      "forear": 2998,
      "ster": 2999,
      "stir": 3000,
      "stell": 3001,
      "still": 3002,
      "stalk": 3003,
      "stair": 3004,
      "stable": 3005,
      "stream": 3006,
      "stinks": 3007,
      "tie": 3008,
      "tiv": 3009,
      "tile": 3010,
      "tire": 3011,
      "tikwee": 3012,
      "ella": 3013,
      "eensi": 3014,
      "ented": 3015,
      "kwiil": 3016,
      "hoe": 3017,
      "hog": 3018,
      "hout": 3019,
      "anta": 3020,
      "beam": 3021,
      "bear": 3022,
      "ument": 3023,
      "umber": 3024,
      "upright": 3025,
      "abra": 3026,
      "abund": 3027,
      "absent": 3028,
      "abandon": 3029,
      "liff": 3030,
      "kinaahkw": 3031,
      "kineepikw": 3032,
      "loud": 3033,
      "lodge": 3034,
      "aapam": 3035,
      "aapac": 3036,
      "aapwee": 3037,
      "aapiteeh": 3038,
      "aapoohkii": 3039,
      "aapweeyo": 3040,
      "witon": 3041,
      "hsikaan": 3042,
      "waapahaakan": 3043,
      "waapantam": 3044,
      "waapahee": 3045,
      "rior": 3046,
      "ries": 3047,
      "ried": 3048,
      "term": 3049,
      "terus": 3050,
      "cket": 3051,
      "ney": 3052,
      "neck": 3053,
      "nepo": 3054,
      "negative": 3055,
      "siihsi": 3056,
      "ahkionki": 3057,
      "ceive": 3058,
      "cept": 3059,
      "wiihs": 3060,
      "wiihsak": 3061,
      "wiicinaakosi": 3062,
      "pakam": 3063,
      "pakwaapow": 3064,
      "watch": 3065,
      "iversity": 3066,
      "ciik": 3067,
      "ciiki": 3068,
      "coax": 3069,
      "kocim": 3070,
      "kaanseensee": 3071,
      "niim": 3072,
      "niiyaa": 3073,
      "niipin": 3074,
      "teem": 3075,
      "teepat": 3076,
      "ongly": 3077,
      "maam": 3078,
      "maamiš": 3079,
      "shot": 3080,
      "shell": 3081,
      "shoot": 3082,
      "shape": 3083,
      "sharp": 3084,
      "plant": 3085,
      "plish": 3086,
      "quill": 3087,
      "quarter": 3088,
      "quiet": 3089,
      "rown": 3090,
      "icken": 3091,
      "many": 3092,
      "maneehwi": 3093,
      "miihs": 3094,
      "miici": 3095,
      "miisii": 3096,
      "miikaal": 3097,
      "ahsii": 3098,
      "ahsaahk": 3099,
      "ahsap": 3100,
      "ahseni": 3101,
      "ahsahkw": 3102,
      "ctly": 3103,
      "devel": 3104,
      "debate": 3105,
      "hpyaa": 3106,
      "inkweemin": 3107,
      "inkweemiš": 3108,
      "ears": 3109,
      "earth": 3110,
      "minee": 3111,
      "ouch": 3112,
      "orning": 3113,
      "oonsee": 3114,
      "oonsaalamon": 3115,
      "anawee": 3116,
      "frost": 3117,
      "grand": 3118,
      "grill": 3119,
      "soil": 3120,
      "sock": 3121,
      "soleta": 3122,
      "souri": 3123,
      "ootaakan": 3124,
      "illino": 3125,
      "meš": 3126,
      "mehš": 3127,
      "mehci": 3128,
      "mehšii": 3129,
      "iteehion": 3130,
      "That": 3131,
      "This": 3132,
      "Thank": 3133,
      "apil": 3134,
      "apili": 3135,
      "apikam": 3136,
      "spring": 3137,
      "sparrow": 3138,
      "spaper": 3139,
      "tehte": 3140,
      "artes": 3141,
      "ffold": 3142,
      "Char": 3143,
      "Choose": 3144,
      "goods": 3145,
      "sissippi": 3146,
      "waankan": 3147,
      "Blood": 3148,
      "Blank": 3149,
      "handed": 3150,
      "meetaa": 3151,
      "meemil": 3152,
      "pos": 3153,
      "pocket": 3154,
      "penn": 3155,
      "Star": 3156,
      "Stink": 3157,
      "blood": 3158,
      "cond": 3159,
      "consent": 3160,
      "contrad": 3161,
      "consin": 3162,
      "constell": 3163,
      "downward": 3164,
      "web": 3165,
      "pilee": 3166,
      "pileew": 3167,
      "piloohs": 3168,
      "Toile": 3169,
      "box": 3170,
      "boat": 3171,
      "bound": 3172,
      "poonwee": 3173,
      "poonik": 3174,
      "anger": 3175,
      "angulum": 3176,
      "istoric": 3177,
      "Whip": 3178,
      "ieve": 3179,
      "išaahkw": 3180,
      "mahkat": 3181,
      "paapiici": 3182,
      "respect": 3183,
      "Cradle": 3184,
      "Cracked": 3185,
      "Govern": 3186,
      "Gourd": 3187,
      "ahtee": 3188,
      "cannot": 3189,
      "ifol": 3190,
      "ifoli": 3191,
      "yonk": 3192,
      "yonder": 3193,
      "ashamed": 3194,
      "Brush": 3195,
      "Broom": 3196,
      "Bridge": 3197,
      "Bridle": 3198,
      "again": 3199,
      "crook": 3200,
      "crush": 3201,
      "cramp": 3202,
      "cradle": 3203,
      "clover": 3204,
      "cloud": 3205,
      "genus": 3206,
      "moides": 3207,
      "mountain": 3208,
      "moccasin": 3209,
      "aayaahk": 3210,
      "eephši": 3211,
      "isease": 3212,
      "pikolakit": 3213,
      "phis": 3214,
      "phet": 3215,
      "phant": 3216,
      "toopal": 3217,
      "anseensee": 3218,
      "iteeheeyon": 3219,
      "Shame": 3220,
      "doctor": 3221,
      "kami": 3222,
      "kamii": 3223,
      "nock": 3224,
      "noise": 3225,
      "string": 3226,
      "struct": 3227,
      "straight": 3228,
      "striatus": 3229,
      "strongly": 3230,
      "Left": 3231,
      "Leaves": 3232,
      "avo": 3233,
      "kweed": 3234,
      "kweehsi": 3235,
      "noonaakan": 3236,
      "Care": 3237,
      "Grass": 3238,
      "commun": 3239,
      "complish": 3240,
      "taahs": 3241,
      "taato": 3242,
      "ateehsee": 3243,
      "maleewahki": 3244,
      "Place": 3245,
      "branch": 3246,
      "clepias": 3247,
      "neehs": 3248,
      "osus": 3249,
      "osto": 3250,
      "osaakan": 3251,
      "tamaw": 3252,
      "what": 3253,
      "while": 3254,
      "kihkint": 3255,
      "kihkatw": 3256,
      "mihšihk": 3257,
      "mihšikaatee": 3258,
      "mihšipakw": 3259,
      "mihšiinkweemiš": 3260,
      "urning": 3261,
      "Heal": 3262,
      "goal": 3263,
      "goes": 3264,
      "kaahp": 3265,
      "melo": 3266,
      "obser": 3267,
      "object": 3268,
      "obsoleta": 3269,
      "obstruct": 3270,
      "puter": 3271,
      "papan": 3272,
      "welcome": 3273,
      "aašite": 3274,
      "aašawi": 3275,
      "iilan": 3276,
      "miihkintam": 3277,
      "ahsenaami": 3278,
      "ahsenaamiš": 3279,
      "Doctor": 3280,
      "broth": 3281,
      "broil": 3282,
      "print": 3283,
      "prison": 3284,
      "imina": 3285,
      "waapicahkihkw": 3286,
      "aanikop": 3287,
      "kiišaan": 3288,
      "kiišiniiki": 3289,
      "wiihkwee": 3290,
      "Pecan": 3291,
      "Pepper": 3292,
      "breaks": 3293,
      "climb": 3294,
      "custo": 3295,
      "draw": 3296,
      "drunk": 3297,
      "fix": 3298,
      "glabra": 3299,
      "kilik": 3300,
      "killed": 3301,
      "mature": 3302,
      "pare": 3303,
      "yaalotaw": 3304,
      "waahkat": 3305,
      "waahkosi": 3306,
      "kiihkon": 3307,
      "hearted": 3308,
      "Blackhaw": 3309,
      "Aralia": 3310,
      "Lose": 3311,
      "Lock": 3312,
      "Lodge": 3313,
      "flat": 3314,
      "flood": 3315,
      "fluence": 3316,
      "llum": 3317,
      "poop": 3318,
      "palwaakan": 3319,
      "palustr": 3320,
      "related": 3321,
      "relative": 3322,
      "speaking": 3323,
      "tahkaahs": 3324,
      "icient": 3325,
      "waapanki": 3326,
      "Command": 3327,
      "Hog": 3328,
      "House": 3329,
      "dye": 3330,
      "keešihi": 3331,
      "pahko": 3332,
      "pahkiiht": 3333,
      "times": 3334,
      "women": 3335,
      "yoši": 3336,
      "incipal": 3337,
      "onamahwi": 3338,
      "peehkikwaa": 3339,
      "covered": 3340,
      "Ant": 3341,
      "Elm": 3342,
      "Writer": 3343,
      "correct": 3344,
      "discard": 3345,
      "kaahkimiihsit": 3346,
      "lenkw": 3347,
      "large": 3348,
      "larger": 3349,
      "merge": 3350,
      "mercy": 3351,
      "monax": 3352,
      "prett": 3353,
      "soonk": 3354,
      "soonkin": 3355,
      "aamwi": 3356,
      "elect": 3357,
      "pemit": 3358,
      "sisters": 3359,
      "clothes": 3360,
      "Cornus": 3361,
      "Pour": 3362,
      "Popul": 3363,
      "Pract": 3364,
      "Really": 3365,
      "Soup": 3366,
      "Watch": 3367,
      "fully": 3368,
      "flower": 3369,
      "myaalamee": 3370,
      "naanaamaa": 3371,
      "nipwaantii": 3372,
      "pyaak": 3373,
      "pesent": 3374,
      "sakint": 3375,
      "triangulum": 3376,
      "wiihkapaakan": 3377,
      "Body": 3378,
      "Belt": 3379,
      "Believe": 3380,
      "Rock": 3381,
      "afraid": 3382,
      "days": 3383,
      "dirt": 3384,
      "ehkwi": 3385,
      "ehkwaakan": 3386,
      "falling": 3387,
      "kalol": 3388,
      "koli": 3389,
      "mentam": 3390,
      "smaller": 3391,
      "ities": 3392,
      "threads": 3393,
      "wild": 3394,
      "willow": 3395,
      "kiišikw": 3396,
      "kiišikat": 3397,
      "aalimii": 3398,
      "aalimiiht": 3399,
      "news": 3400,
      "kociween": 3401,
      "Asclepias": 3402,
      "Asimina": 3403,
      "Bathe": 3404,
      "Catch": 3405,
      "Misunderstand": 3406,
      "Missouri": 3407,
      "first": 3408,
      "friendly": 3409,
      "kwihtan": 3410,
      "neekatik": 3411,
      "paapankamw": 3412,
      "paapahsaahk": 3413,
      "salt": 3414,
      "salmoides": 3415,
      "worker": 3416,
      "iihkipak": 3417,
      "alemw": 3418,
      "alemontehs": 3419,
      "akwanilee": 3420,
      "piitilaan": 3421,
      "ahiwi": 3422,
      "mihšiimin": 3423,
      "kiihkišam": 3424,
      "aalakiinkwaakan": 3425,
      "forever": 3426,
      "foreign": 3427,
      "stands": 3428,
      "wiicikaa": 3429,
      "maawihšin": 3430,
      "noontaahk": 3431,
      "noontaahkw": 3432,
      "brothers": 3433,
      "keekaanwi": 3434,
      "Barn": 3435,
      "Barter": 3436,
      "Choke": 3437,
      "English": 3438,
      "Mean": 3439,
      "Ondat": 3440,
      "Under": 3441,
      "Ursus": 3442,
      "Urtica": 3443,
      "caffold": 3444,
      "ešiteehee": 3445,
      "ferry": 3446,
      "fertile": 3447,
      "fasten": 3448,
      "kookaan": 3449,
      "kisimiti": 3450,
      "kwaahkw": 3451,
      "metal": 3452,
      "metem": 3453,
      "oxyr": 3454,
      "porcupine": 3455,
      "stomach": 3456,
      "aahpit": 3457,
      "eelikw": 3458,
      "ansiwat": 3459,
      "alwasi": 3460,
      "letter": 3461,
      "ropterus": 3462,
      "aankweepi": 3463,
      "kiinteel": 3464,
      "aahkwihsen": 3465,
      "mihtekam": 3466,
      "mihtekwaap": 3467,
      "apineens": 3468,
      "kociihsaapo": 3469,
      "niihpikicii": 3470,
      "meehtaaha": 3471,
      "contin": 3472,
      "contented": 3473,
      "naapiinkwi": 3474,
      "Buckeye": 3475,
      "breastfeed": 3476,
      "Accipit": 3477,
      "Almost": 3478,
      "Disk": 3479,
      "Dislike": 3480,
      "Glue": 3481,
      "Mix": 3482,
      "Morone": 3483,
      "Michig": 3484,
      "Micropterus": 3485,
      "Preserve": 3486,
      "Painted": 3487,
      "Shovel": 3488,
      "caaht": 3489,
      "dressed": 3490,
      "kyaank": 3491,
      "kapeeh": 3492,
      "koohkooši": 3493,
      "mayaa": 3494,
      "mahtohk": 3495,
      "mahtohki": 3496,
      "nahsi": 3497,
      "sitting": 3498,
      "shop": 3499,
      "shoes": 3500,
      "stops": 3501,
      "sleepy": 3502,
      "sleeping": 3503,
      "tattoo": 3504,
      "uthor": 3505,
      "aciik": 3506,
      "weeweepihsaa": 3507,
      "mihsool": 3508,
      "waapinkopakat": 3509,
      "pakitaham": 3510,
      "niihpikan": 3511,
      "hpenatoo": 3512,
      "mehtahk": 3513,
      "inehkiiwaci": 3514,
      "paahpahaakan": 3515,
      "kisihsinehkii": 3516,
      "Butternut": 3517,
      "Butterfly": 3518,
      "Admire": 3519,
      "Coat": 3520,
      "Capture": 3521,
      "Council": 3522,
      "Fire": 3523,
      "Joseph": 3524,
      "Milk": 3525,
      "Nose": 3526,
      "Swim": 3527,
      "Swing": 3528,
      "aughter": 3529,
      "bursts": 3530,
      "baby": 3531,
      "burns": 3532,
      "dried": 3533,
      "group": 3534,
      "hensive": 3535,
      "kahkeen": 3536,
      "kahkitee": 3537,
      "knowledge": 3538,
      "niger": 3539,
      "nigra": 3540,
      "naapinaakan": 3541,
      "naapinam": 3542,
      "noolinti": 3543,
      "powder": 3544,
      "pahšik": 3545,
      "sacchar": 3546,
      "solid": 3547,
      "setigera": 3548,
      "two": 3549,
      "twins": 3550,
      "voice": 3551,
      "yohkam": 3552,
      "eewiyawi": 3553,
      "imotay": 3554,
      "aleelii": 3555,
      "aleeliih": 3556,
      "orius": 3557,
      "wihkici": 3558,
      "heavy": 3559,
      "aapowee": 3560,
      "planet": 3561,
      "manetoow": 3562,
      "moohsohkii": 3563,
      "maleehp": 3564,
      "paahpihtoo": 3565,
      "nepwinehkiiwaci": 3566,
      "carolinensis": 3567,
      "glasses": 3568,
      "firmly": 3569,
      "species": 3570,
      "specific": 3571,
      "aakalaahšimaatawee": 3572,
      "photographed": 3573,
      "Agkist": 3574,
      "Alligator": 3575,
      "Cause": 3576,
      "Climb": 3577,
      "Clean": 3578,
      "Doubt": 3579,
      "Feather": 3580,
      "From": 3581,
      "General": 3582,
      "Groundhog": 3583,
      "Gooseberry": 3584,
      "Help": 3585,
      "Handle": 3586,
      "Month": 3587,
      "Melaner": 3588,
      "Mayapple": 3589,
      "Office": 3590,
      "Prophet": 3591,
      "Sciurus": 3592,
      "Squirrel": 3593,
      "Scratch": 3594,
      "Strike": 3595,
      "Twig": 3596,
      "Travel": 3597,
      "Vulpes": 3598,
      "affirmat": 3599,
      "building": 3600,
      "busy": 3601,
      "deltoides": 3602,
      "domestica": 3603,
      "family": 3604,
      "garden": 3605,
      "kakap": 3606,
      "kahkiiti": 3607,
      "kašihk": 3608,
      "rufus": 3609,
      "spirit": 3610,
      "surface": 3611,
      "aayaacim": 3612,
      "eešaakant": 3613,
      "eryth": 3614,
      "akincikoon": 3615,
      "refrain": 3616,
      "awiihkaan": 3617,
      "kiinaakwapi": 3618,
      "ahpwaakan": 3619,
      "middle": 3620,
      "mihcalaankw": 3621,
      "apprehensive": 3622,
      "kiilohkim": 3623,
      "starting": 3624,
      "antepi": 3625,
      "kinoosaawi": 3626,
      "nearly": 3627,
      "courage": 3628,
      "minooteenhs": 3629,
      "tekweesi": 3630,
      "possession": 3631,
      "pilakiihiwi": 3632,
      "nahikwaatee": 3633,
      "pleasing": 3634,
      "completely": 3635,
      "taahtakii": 3636,
      "fecate": 3637,
      "pinšiw": 3638,
      "kitemaakeelim": 3639,
      "nataweelintam": 3640,
      "nipwaayonikaan": 3641,
      "numbers": 3642,
      "Measure": 3643,
      "Muskrat": 3644,
      "secretly": 3645,
      "Aesculus": 3646,
      "Bathroom": 3647,
      "Chimney": 3648,
      "Dewberry": 3649,
      "Elephant": 3650,
      "Everywhere": 3651,
      "Husband": 3652,
      "Hawthorn": 3653,
      "Honey": 3654,
      "Hackberry": 3655,
      "Iowa": 3656,
      "Juglans": 3657,
      "Kitchen": 3658,
      "Lynx": 3659,
      "Lemon": 3660,
      "Learn": 3661,
      "Listen": 3662,
      "Laugh": 3663,
      "Largemouth": 3664,
      "Mulberry": 3665,
      "Manage": 3666,
      "Myaamia": 3667,
      "Mistake": 3668,
      "Marmota": 3669,
      "Mushroom": 3670,
      "Old": 3671,
      "Panther": 3672,
      "Picoides": 3673,
      "Powder": 3674,
      "Raise": 3675,
      "Return": 3676,
      "Support": 3677,
      "Slipper": 3678,
      "Steal": 3679,
      "Sweat": 3680,
      "Spring": 3681,
      "Tippecanoe": 3682,
      "Ulmus": 3683,
      "Visit": 3684,
      "Wipe": 3685,
      "Wisconsin": 3686,
      "briar": 3687,
      "ceenkwihtan": 3688,
      "dangerous": 3689,
      "dancing": 3690,
      "effort": 3691,
      "halloween": 3692,
      "kwaahkwaan": 3693,
      "lupus": 3694,
      "lazy": 3695,
      "mahwee": 3696,
      "memekwii": 3697,
      "mahsenaham": 3698,
      "nicely": 3699,
      "naloomin": 3700,
      "obey": 3701,
      "pants": 3702,
      "papikwan": 3703,
      "paakišiinkwee": 3704,
      "spill": 3705,
      "sufficient": 3706,
      "tuber": 3707,
      "tongue": 3708,
      "yandot": 3709,
      "zibethicus": 3710,
      "aatotam": 3711,
      "inchus": 3712,
      "eecipoon": 3713,
      "anaahkap": 3714,
      "angrily": 3715,
      "anconci": 3716,
      "antopali": 3717,
      "important": 3718,
      "alwaamyaak": 3719,
      "amataahkomi": 3720,
      "enjoy": 3721,
      "akintee": 3722,
      "thsoopi": 3723,
      "piintikii": 3724,
      "leopard": 3725,
      "icolor": 3726,
      "awiipiti": 3727,
      "unmarried": 3728,
      "oleracea": 3729,
      "triloba": 3730,
      "separate": 3731,
      "intensely": 3732,
      "forearm": 3733,
      "abundant": 3734,
      "aapweeyohsee": 3735,
      "shooting": 3736,
      "quarters": 3737,
      "quietly": 3738,
      "develop": 3739,
      "illinoinensis": 3740,
      "tehtepihsaa": 3741,
      "Blanket": 3742,
      "meetaathsoopi": 3743,
      "meemileehši": 3744,
      "contradict": 3745,
      "constellation": 3746,
      "Toilet": 3747,
      "ifolium": 3748,
      "community": 3749,
      "objects": 3750,
      "ahsenaamiši": 3751,
      "prisoner": 3752,
      "climbing": 3753,
      "palustris": 3754,
      "kaahkimiihsiton": 3755,
      "prettily": 3756,
      "Populus": 3757,
      "Practice": 3758,
      "nipwaantiikaan": 3759,
      "neekatikaši": 3760,
      "Ondatra": 3761,
      "kisimitiwee": 3762,
      "oxyrinchus": 3763,
      "niihpikiciipihki": 3764,
      "Accipiter": 3765,
      "Michigan": 3766,
      "eewiyawiki": 3767,
      "moohsohkiišik": 3768,
      "Agkistrodon": 3769,
      "Melanerpes": 3770,
      "')": 3771,
      "(?": 3772,
      "Ax": 3773,
      "Aim": 3774,
      "Api": 3775,
      "Aci": 3776,
      "Agr": 3777,
      "Ass": 3778,
      "Ame": 3779,
      "Apo": 3780,
      "Ado": 3781,
      "Afr": 3782,
      "Apal": 3783,
      "Acre": 3784,
      "Acorn": 3785,
      "Along": 3786,
      "Aband": 3787,
      "Aunt": 3788,
      "Aven": 3789,
      "Awl": 3790,
      "Author": 3791,
      "Bi": 3792,
      "Bee": 3793,
      "Ban": 3794,
      "Bal": 3795,
      "Bor": 3796,
      "Bac": 3797,
      "Bro": 3798,
      "Bil": 3799,
      "Bom": 3800,
      "Bow": 3801,
      "Bap": 3802,
      "Bot": 3803,
      "Bul": 3804,
      "Bab": 3805,
      "Ball": 3806,
      "Boot": 3807,
      "Bug": 3808,
      "Bend": 3809,
      "Bread": 3810,
      "Breat": 3811,
      "Brain": 3812,
      "Bota": 3813,
      "Bisc": 3814,
      "Burning": 3815,
      "Cit": 3816,
      "Coo": 3817,
      "Cen": 3818,
      "Cel": 3819,
      "Cic": 3820,
      "Cow": 3821,
      "Cah": 3822,
      "Cay": 3823,
      "Cave": 3824,
      "Ced": 3825,
      "Cand": 3826,
      "Cir": 3827,
      "Che": 3828,
      "Cell": 3829,
      "Come": 3830,
      "Cup": 3831,
      "Cab": 3832,
      "Cold": 3833,
      "Cong": 3834,
      "Crow": 3835,
      "Cou": 3836,
      "Cash": 3837,
      "Cure": 3838,
      "Cory": 3839,
      "Cath": 3840,
      "Cous": 3841,
      "Case": 3842,
      "Camp": 3843,
      "Cover": 3844,
      "Creat": 3845,
      "Cheat": 3846,
      "Cough": 3847,
      "Coc": 3848,
      "Cerv": 3849,
      "Clock": 3850,
      "Cerc": 3851,
      "Crot": 3852,
      "Civ": 3853,
      "Culis": 3854,
      "Cider": 3855,
      "Cliff": 3856,
      "Cloud": 3857,
      "Don": 3858,
      "Den": 3859,
      "Des": 3860,
      "Dol": 3861,
      "Det": 3862,
      "Did": 3863,
      "Dri": 3864,
      "Dra": 3865,
      "Down": 3866,
      "Die": 3867,
      "Duck": 3868,
      "Deer": 3869,
      "Dung": 3870,
      "Dollar": 3871,
      "Delaw": 3872,
      "Dirt": 3873,
      "Diversity": 3874,
      "Drown": 3875,
      "Disease": 3876,
      "Daughter": 3877,
      "Er": 3878,
      "Eu": 3879,
      "Eit": 3880,
      "Equ": 3881,
      "Eso": 3882,
      "Even": 3883,
      "Emerge": 3884,
      "Fo": 3885,
      "Fan": 3886,
      "Fing": 3887,
      "Fom": 3888,
      "Fah": 3889,
      "Fig": 3890,
      "Fid": 3891,
      "Food": 3892,
      "Fell": 3893,
      "Flo": 3894,
      "Fold": 3895,
      "Foot": 3896,
      "Fill": 3897,
      "Fart": 3898,
      "Father": 3899,
      "Feed": 3900,
      "Friend": 3901,
      "Fence": 3902,
      "Fore": 3903,
      "Fawn": 3904,
      "Fright": 3905,
      "Fren": 3906,
      "Fisher": 3907,
      "First": 3908,
      "Fries": 3909,
      "Gi": 3910,
      "Ger": 3911,
      "Gro": 3912,
      "Gre": 3913,
      "Gay": 3914,
      "Get": 3915,
      "Gone": 3916,
      "Good": 3917,
      "Gum": 3918,
      "Gri": 3919,
      "Gold": 3920,
      "Gard": 3921,
      "Gav": 3922,
      "Gull": 3923,
      "Gled": 3924,
      "Guit": 3925,
      "Grape": 3926,
      "Gau": 3927,
      "Gros": 3928,
      "Gift": 3929,
      "Gamble": 3930,
      "Guts": 3931,
      "Him": 3932,
      "Hat": 3933,
      "Har": 3934,
      "Hay": 3935,
      "Hun": 3936,
      "Hap": 3937,
      "Hed": 3938,
      "Hot": 3939,
      "Hell": 3940,
      "Heel": 3941,
      "Hem": 3942,
      "Hill": 3943,
      "Hug": 3944,
      "Hail": 3945,
      "Hex": 3946,
      "Hunt": 3947,
      "Hominy": 3948,
      "Haz": 3949,
      "Halia": 3950,
      "Harvest": 3951,
      "Hors": 3952,
      "Hanger": 3953,
      "Historic": 3954,
      "IN": 3955,
      "Im": 3956,
      "Iro": 3957,
      "Ict": 3958,
      "Icti": 3959,
      "Ipom": 3960,
      "Island": 3961,
      "Jer": 3962,
      "Jes": 3963,
      "Jay": 3964,
      "Jack": 3965,
      "Jail": 3966,
      "Joli": 3967,
      "Kan": 3968,
      "Kat": 3969,
      "King": 3970,
      "Kick": 3971,
      "Keep": 3972,
      "Knee": 3973,
      "Kind": 3974,
      "Knot": 3975,
      "Kiss": 3976,
      "Kask": 3977,
      "Knock": 3978,
      "La": 3979,
      "Lon": 3980,
      "Lim": 3981,
      "Lar": 3982,
      "Law": 3983,
      "Loon": 3984,
      "Link": 3985,
      "Land": 3986,
      "Lir": 3987,
      "Lid": 3988,
      "Liver": 3989,
      "Last": 3990,
      "Lard": 3991,
      "Light": 3992,
      "Lion": 3993,
      "Lend": 3994,
      "Lawn": 3995,
      "Language": 3996,
      "Lye": 3997,
      "Life": 3998,
      "Lung": 3999
    },
    "merges": [
      [
        "a",
        "a"
      ],
      [
        "i",
        "n"
      ],
      [
        "e",
        "e"
      ],
      [
        "a",
        "n"
      ],
      [
        "h",
        "k"
      ],
      [
        "i",
        "t"
      ],
      [
        "e",
        "r"
      ],
      [
        "i",
        "i"
      ],
      [
        "o",
        "n"
      ],
      [
        "i",
        "m"
      ],
      [
        "a",
        "t"
      ],
      [
        "o",
        "o"
      ],
      [
        "i",
        "s"
      ],
      [
        "a",
        "l"
      ],
      [
        "a",
        "m"
      ],
      [
        "h",
        "im"
      ],
      [
        "e",
        "n"
      ],
      [
        "a",
        "k"
      ],
      [
        "t",
        "h"
      ],
      [
        "a",
        "r"
      ],
      [
        "h",
        "s"
      ],
      [
        "o",
        "r"
      ],
      [
        "w",
        "aa"
      ],
      [
        "p",
        "i"
      ],
      [
        "in",
        "g"
      ],
      [
        "e",
        "l"
      ],
      [
        "w",
        "i"
      ],
      [
        "u",
        "s"
      ],
      [
        "h",
        "t"
      ],
      [
        "l",
        "e"
      ],
      [
        "aa",
        "k"
      ],
      [
        "a",
        "c"
      ],
      [
        "w",
        "ee"
      ],
      [
        "r",
        "o"
      ],
      [
        "a",
        "s"
      ],
      [
        "e",
        "s"
      ],
      [
        "i",
        "c"
      ],
      [
        "i",
        "l"
      ],
      [
        "t",
        "o"
      ],
      [
        "a",
        "hk"
      ],
      [
        "v",
        "e"
      ],
      [
        "o",
        "m"
      ],
      [
        "r",
        "e"
      ],
      [
        "u",
        "t"
      ],
      [
        "a",
        "w"
      ],
      [
        "aa",
        "n"
      ],
      [
        "k",
        "i"
      ],
      [
        "o",
        "w"
      ],
      [
        "o",
        "on"
      ],
      [
        "I",
        "t"
      ],
      [
        "a",
        "h"
      ],
      [
        "p",
        "e"
      ],
      [
        "aa",
        "hk"
      ],
      [
        "a",
        "y"
      ],
      [
        "u",
        "n"
      ],
      [
        "m",
        "i"
      ],
      [
        "o",
        "f"
      ],
      [
        "a",
        "p"
      ],
      [
        "c",
        "i"
      ],
      [
        "o",
        "l"
      ],
      [
        "B",
        "e"
      ],
      [
        "aak",
        "an"
      ],
      [
        "in",
        "k"
      ],
      [
        "a",
        "d"
      ],
      [
        "š",
        "i"
      ],
      [
        "k",
        "ii"
      ],
      [
        "a",
        "ve"
      ],
      [
        "e",
        "d"
      ],
      [
        "t",
        "r"
      ],
      [
        "an",
        "d"
      ],
      [
        "o",
        "t"
      ],
      [
        "ak",
        "e"
      ],
      [
        "s",
        "i"
      ],
      [
        "v",
        "er"
      ],
      [
        "hk",
        "i"
      ],
      [
        "e",
        "t"
      ],
      [
        "u",
        "r"
      ],
      [
        "c",
        "h"
      ],
      [
        "l",
        "y"
      ],
      [
        "p",
        "ii"
      ],
      [
        "s",
        "e"
      ],
      [
        "i",
        "r"
      ],
      [
        "i",
        "g"
      ],
      [
        "in",
        "t"
      ],
      [
        "on",
        "e"
      ],
      [
        "ee",
        "h"
      ],
      [
        "aa",
        "l"
      ],
      [
        "h",
        "e"
      ],
      [
        "th",
        "e"
      ],
      [
        "g",
        "e"
      ],
      [
        "p",
        "ee"
      ],
      [
        "u",
        "l"
      ],
      [
        "i",
        "d"
      ],
      [
        "f",
        "or"
      ],
      [
        "s",
        "t"
      ],
      [
        "t",
        "i"
      ],
      [
        "oo",
        "d"
      ],
      [
        "el",
        "l"
      ],
      [
        "th",
        "er"
      ],
      [
        "om",
        "e"
      ],
      [
        "ee",
        "n"
      ],
      [
        "en",
        "t"
      ],
      [
        "th",
        "ing"
      ],
      [
        "k",
        "w"
      ],
      [
        "h",
        "o"
      ],
      [
        "an",
        "t"
      ],
      [
        "H",
        "ave"
      ],
      [
        "b",
        "e"
      ],
      [
        "u",
        "m"
      ],
      [
        "u",
        "p"
      ],
      [
        "a",
        "b"
      ],
      [
        "l",
        "i"
      ],
      [
        "h",
        "er"
      ],
      [
        "k",
        "in"
      ],
      [
        "l",
        "o"
      ],
      [
        "aa",
        "p"
      ],
      [
        "w",
        "it"
      ],
      [
        "hs",
        "i"
      ],
      [
        "waa",
        "p"
      ],
      [
        "h",
        "š"
      ],
      [
        "k",
        "an"
      ],
      [
        "r",
        "i"
      ],
      [
        "t",
        "er"
      ],
      [
        "c",
        "k"
      ],
      [
        "r",
        "y"
      ],
      [
        "ee",
        "l"
      ],
      [
        "al",
        "l"
      ],
      [
        "n",
        "e"
      ],
      [
        "o",
        "ut"
      ],
      [
        "p",
        "er"
      ],
      [
        "s",
        "ome"
      ],
      [
        "ac",
        "e"
      ],
      [
        "ol",
        "d"
      ],
      [
        ")",
        ","
      ],
      [
        "r",
        "a"
      ],
      [
        "s",
        "ii"
      ],
      [
        "ahk",
        "i"
      ],
      [
        "b",
        "y"
      ],
      [
        "un",
        "d"
      ],
      [
        "c",
        "e"
      ],
      [
        "w",
        "ii"
      ],
      [
        "ac",
        "k"
      ],
      [
        "p",
        "ak"
      ],
      [
        "w",
        "at"
      ],
      [
        "e",
        "m"
      ],
      [
        "i",
        "ver"
      ],
      [
        "oo",
        "hk"
      ],
      [
        "is",
        "h"
      ],
      [
        "wit",
        "h"
      ],
      [
        "t",
        "a"
      ],
      [
        "c",
        "ii"
      ],
      [
        "c",
        "o"
      ],
      [
        "k",
        "o"
      ],
      [
        "k",
        "aan"
      ],
      [
        "aahk",
        "w"
      ],
      [
        "d",
        "i"
      ],
      [
        "n",
        "ii"
      ],
      [
        "t",
        "ee"
      ],
      [
        "ht",
        "oo"
      ],
      [
        "some",
        "thing"
      ],
      [
        "R",
        "iver"
      ],
      [
        "on",
        "g"
      ],
      [
        "m",
        "aa"
      ],
      [
        "s",
        "h"
      ],
      [
        "oo",
        "k"
      ],
      [
        "as",
        "t"
      ],
      [
        "p",
        "l"
      ],
      [
        "q",
        "u"
      ],
      [
        "at",
        "e"
      ],
      [
        "ro",
        "w"
      ],
      [
        "es",
        "t"
      ],
      [
        "ic",
        "k"
      ],
      [
        "m",
        "an"
      ],
      [
        "m",
        "ii"
      ],
      [
        "hk",
        "w"
      ],
      [
        "a",
        "hs"
      ],
      [
        "c",
        "t"
      ],
      [
        "d",
        "e"
      ],
      [
        "h",
        "p"
      ],
      [
        "h",
        "ši"
      ],
      [
        "ar",
        "d"
      ],
      [
        "ink",
        "wee"
      ],
      [
        "pii",
        "w"
      ],
      [
        "e",
        "ar"
      ],
      [
        "k",
        "e"
      ],
      [
        "m",
        "in"
      ],
      [
        "o",
        "u"
      ],
      [
        "oo",
        "l"
      ],
      [
        "or",
        "n"
      ],
      [
        "oon",
        "s"
      ],
      [
        "ah",
        "am"
      ],
      [
        "ig",
        "ht"
      ],
      [
        "an",
        "a"
      ],
      [
        "it",
        "e"
      ],
      [
        "er",
        "ic"
      ],
      [
        "f",
        "ro"
      ],
      [
        "g",
        "r"
      ],
      [
        "l",
        "ow"
      ],
      [
        "s",
        "o"
      ],
      [
        "ee",
        "k"
      ],
      [
        "tr",
        "ee"
      ],
      [
        "o",
        "si"
      ],
      [
        "s",
        "s"
      ],
      [
        "s",
        "on"
      ],
      [
        "oo",
        "t"
      ],
      [
        "ac",
        "h"
      ],
      [
        "il",
        "l"
      ],
      [
        "sii",
        "piiw"
      ],
      [
        "i",
        "ve"
      ],
      [
        "m",
        "e"
      ],
      [
        "y",
        "aa"
      ],
      [
        "it",
        "eeh"
      ],
      [
        "T",
        "h"
      ],
      [
        "a",
        "pi"
      ],
      [
        "i",
        "p"
      ],
      [
        "ow",
        "n"
      ],
      [
        "b",
        "er"
      ],
      [
        "s",
        "p"
      ],
      [
        "t",
        "e"
      ],
      [
        "ar",
        "t"
      ],
      [
        "f",
        "f"
      ],
      [
        "h",
        "ave"
      ],
      [
        "i",
        "on"
      ],
      [
        "m",
        "oo"
      ],
      [
        "C",
        "h"
      ],
      [
        "g",
        "ood"
      ],
      [
        "o",
        "ther"
      ],
      [
        "s",
        "is"
      ],
      [
        "in",
        "e"
      ],
      [
        "waa",
        "n"
      ],
      [
        "per",
        "son"
      ],
      [
        "B",
        "l"
      ],
      [
        "a",
        "wi"
      ],
      [
        "h",
        "and"
      ],
      [
        "m",
        "ee"
      ],
      [
        "p",
        "o"
      ],
      [
        "w",
        "ell"
      ],
      [
        "at",
        "her"
      ],
      [
        "us",
        "e"
      ],
      [
        "wat",
        "er"
      ],
      [
        "i",
        "a"
      ],
      [
        "p",
        "en"
      ],
      [
        "hs",
        "ee"
      ],
      [
        "pi",
        "hk"
      ],
      [
        "pe",
        "ak"
      ],
      [
        "M",
        "ake"
      ],
      [
        "S",
        "t"
      ],
      [
        "b",
        "l"
      ],
      [
        "c",
        "on"
      ],
      [
        "d",
        "own"
      ],
      [
        "o",
        "hk"
      ],
      [
        "u",
        "g"
      ],
      [
        "w",
        "e"
      ],
      [
        "al",
        "k"
      ],
      [
        "al",
        "aa"
      ],
      [
        "pi",
        "l"
      ],
      [
        "I",
        "n"
      ],
      [
        "T",
        "o"
      ],
      [
        "a",
        "wee"
      ],
      [
        "b",
        "o"
      ],
      [
        "m",
        "al"
      ],
      [
        "p",
        "oon"
      ],
      [
        "w",
        "an"
      ],
      [
        "in",
        "aak"
      ],
      [
        "an",
        "g"
      ],
      [
        "is",
        "t"
      ],
      [
        "W",
        "h"
      ],
      [
        "d",
        "er"
      ],
      [
        "f",
        "ace"
      ],
      [
        "i",
        "e"
      ],
      [
        "i",
        "k"
      ],
      [
        "i",
        "š"
      ],
      [
        "m",
        "ahk"
      ],
      [
        "p",
        "aa"
      ],
      [
        "r",
        "es"
      ],
      [
        "waa",
        "kan"
      ],
      [
        "fro",
        "m"
      ],
      [
        "C",
        "r"
      ],
      [
        "G",
        "o"
      ],
      [
        "a",
        "ht"
      ],
      [
        "a",
        "ge"
      ],
      [
        "c",
        "an"
      ],
      [
        "i",
        "f"
      ],
      [
        "w",
        "ay"
      ],
      [
        "y",
        "on"
      ],
      [
        "is",
        "i"
      ],
      [
        "as",
        "h"
      ],
      [
        "as",
        "s"
      ],
      [
        "ic",
        "e"
      ],
      [
        "B",
        "r"
      ],
      [
        "a",
        "g"
      ],
      [
        "a",
        "ir"
      ],
      [
        "c",
        "r"
      ],
      [
        "c",
        "im"
      ],
      [
        "c",
        "lo"
      ],
      [
        "g",
        "en"
      ],
      [
        "m",
        "o"
      ],
      [
        "u",
        "e"
      ],
      [
        "u",
        "re"
      ],
      [
        "aa",
        "y"
      ],
      [
        "ee",
        "p"
      ],
      [
        "at",
        "oo"
      ],
      [
        "is",
        "e"
      ],
      [
        "ar",
        "m"
      ],
      [
        "pi",
        "k"
      ],
      [
        "of",
        "f"
      ],
      [
        "C",
        "ut"
      ],
      [
        "b",
        "ad"
      ],
      [
        "e",
        "ach"
      ],
      [
        "g",
        "et"
      ],
      [
        "m",
        "ake"
      ],
      [
        "n",
        "ah"
      ],
      [
        "p",
        "h"
      ],
      [
        "t",
        "oo"
      ],
      [
        "t",
        "le"
      ],
      [
        "w",
        "ood"
      ],
      [
        "š",
        "am"
      ],
      [
        "an",
        "s"
      ],
      [
        "hk",
        "ii"
      ],
      [
        "it",
        "ee"
      ],
      [
        "ro",
        "und"
      ],
      [
        "ah",
        "aakan"
      ],
      [
        "ab",
        "out"
      ],
      [
        "iteeh",
        "ee"
      ],
      [
        "S",
        "h"
      ],
      [
        "a",
        "il"
      ],
      [
        "c",
        "er"
      ],
      [
        "d",
        "o"
      ],
      [
        "k",
        "am"
      ],
      [
        "n",
        "o"
      ],
      [
        "s",
        "tr"
      ],
      [
        "aa",
        "pii"
      ],
      [
        "hs",
        "en"
      ],
      [
        "ht",
        "an"
      ],
      [
        "to",
        "p"
      ],
      [
        "In",
        "di"
      ],
      [
        "L",
        "e"
      ],
      [
        "a",
        "v"
      ],
      [
        "e",
        "x"
      ],
      [
        "k",
        "wee"
      ],
      [
        "l",
        "and"
      ],
      [
        "n",
        "oon"
      ],
      [
        "p",
        "le"
      ],
      [
        "in",
        "i"
      ],
      [
        "at",
        "a"
      ],
      [
        "am",
        "e"
      ],
      [
        "ak",
        "i"
      ],
      [
        "us",
        "h"
      ],
      [
        "ac",
        "ro"
      ],
      [
        "re",
        "d"
      ],
      [
        "int",
        "am"
      ],
      [
        "pee",
        "hk"
      ],
      [
        "een",
        "s"
      ],
      [
        "ta",
        "in"
      ],
      [
        "A",
        "m"
      ],
      [
        "C",
        "ar"
      ],
      [
        "G",
        "r"
      ],
      [
        "M",
        "o"
      ],
      [
        "c",
        "om"
      ],
      [
        "k",
        "ot"
      ],
      [
        "t",
        "aa"
      ],
      [
        "at",
        "ee"
      ],
      [
        "al",
        "e"
      ],
      [
        "en",
        "i"
      ],
      [
        "or",
        "y"
      ],
      [
        "ht",
        "am"
      ],
      [
        "eric",
        "an"
      ],
      [
        "mal",
        "ee"
      ],
      [
        "P",
        "l"
      ],
      [
        "b",
        "r"
      ],
      [
        "c",
        "le"
      ],
      [
        "c",
        "old"
      ],
      [
        "f",
        "e"
      ],
      [
        "f",
        "ish"
      ],
      [
        "n",
        "aa"
      ],
      [
        "n",
        "ee"
      ],
      [
        "o",
        "s"
      ],
      [
        "t",
        "am"
      ],
      [
        "w",
        "h"
      ],
      [
        "am",
        "i"
      ],
      [
        "en",
        "d"
      ],
      [
        "il",
        "d"
      ],
      [
        "ki",
        "hk"
      ],
      [
        "mi",
        "hši"
      ],
      [
        "si",
        "de"
      ],
      [
        "ur",
        "n"
      ],
      [
        "ul",
        "l"
      ],
      [
        "ti",
        "on"
      ],
      [
        "hš",
        "in"
      ],
      [
        "ne",
        "p"
      ],
      [
        "pl",
        "ace"
      ],
      [
        "oons",
        "aa"
      ],
      [
        "H",
        "e"
      ],
      [
        "T",
        "ake"
      ],
      [
        "c",
        "ar"
      ],
      [
        "g",
        "o"
      ],
      [
        "g",
        "round"
      ],
      [
        "h",
        "ci"
      ],
      [
        "k",
        "aa"
      ],
      [
        "m",
        "el"
      ],
      [
        "m",
        "as"
      ],
      [
        "m",
        "all"
      ],
      [
        "n",
        "ut"
      ],
      [
        "n",
        "ow"
      ],
      [
        "o",
        "b"
      ],
      [
        "p",
        "in"
      ],
      [
        "p",
        "an"
      ],
      [
        "p",
        "ut"
      ],
      [
        "p",
        "ap"
      ],
      [
        "u",
        "d"
      ],
      [
        "w",
        "a"
      ],
      [
        "w",
        "el"
      ],
      [
        "aa",
        "š"
      ],
      [
        "in",
        "d"
      ],
      [
        "ee",
        "t"
      ],
      [
        "an",
        "im"
      ],
      [
        "ii",
        "l"
      ],
      [
        "at",
        "h"
      ],
      [
        "oo",
        "m"
      ],
      [
        "or",
        "k"
      ],
      [
        "or",
        "t"
      ],
      [
        "ht",
        "aw"
      ],
      [
        "ic",
        "a"
      ],
      [
        "ki",
        "š"
      ],
      [
        "aahk",
        "ii"
      ],
      [
        "aal",
        "hs"
      ],
      [
        "her",
        "e"
      ],
      [
        "ri",
        "b"
      ],
      [
        "mii",
        "hk"
      ],
      [
        "ahs",
        "en"
      ],
      [
        "ber",
        "ry"
      ],
      [
        "inaak",
        "osi"
      ],
      [
        "Wh",
        "ite"
      ],
      [
        "cer",
        "tain"
      ],
      [
        "Indi",
        "ana"
      ],
      [
        "Am",
        "erican"
      ],
      [
        "D",
        "o"
      ],
      [
        "S",
        "peak"
      ],
      [
        "a",
        "htoo"
      ],
      [
        "b",
        "ro"
      ],
      [
        "f",
        "r"
      ],
      [
        "h",
        "is"
      ],
      [
        "i",
        "le"
      ],
      [
        "n",
        "i"
      ],
      [
        "o",
        "us"
      ],
      [
        "p",
        "r"
      ],
      [
        "p",
        "ro"
      ],
      [
        "u",
        "b"
      ],
      [
        "in",
        "ish"
      ],
      [
        "an",
        "ge"
      ],
      [
        "im",
        "in"
      ],
      [
        "ak",
        "ii"
      ],
      [
        "hs",
        "aa"
      ],
      [
        "waa",
        "pi"
      ],
      [
        "as",
        "e"
      ],
      [
        "aan",
        "i"
      ],
      [
        "ki",
        "hki"
      ],
      [
        "mi",
        "š"
      ],
      [
        "kii",
        "š"
      ],
      [
        "wii",
        "hk"
      ],
      [
        "ou",
        "th"
      ],
      [
        "B",
        "u"
      ],
      [
        "P",
        "e"
      ],
      [
        "b",
        "re"
      ],
      [
        "c",
        "l"
      ],
      [
        "c",
        "at"
      ],
      [
        "c",
        "us"
      ],
      [
        "c",
        "ut"
      ],
      [
        "d",
        "r"
      ],
      [
        "f",
        "i"
      ],
      [
        "g",
        "l"
      ],
      [
        "k",
        "il"
      ],
      [
        "m",
        "at"
      ],
      [
        "p",
        "ar"
      ],
      [
        "t",
        "ing"
      ],
      [
        "y",
        "aal"
      ],
      [
        "in",
        "s"
      ],
      [
        "al",
        "ong"
      ],
      [
        "am",
        "p"
      ],
      [
        "en",
        "sis"
      ],
      [
        "waa",
        "hk"
      ],
      [
        "el",
        "y"
      ],
      [
        "aak",
        "i"
      ],
      [
        "aak",
        "ii"
      ],
      [
        "ac",
        "i"
      ],
      [
        "es",
        "s"
      ],
      [
        "of",
        "t"
      ],
      [
        "kii",
        "hk"
      ],
      [
        "ir",
        "g"
      ],
      [
        "int",
        "er"
      ],
      [
        "he",
        "art"
      ],
      [
        "ant",
        "am"
      ],
      [
        "hš",
        "ii"
      ],
      [
        "cii",
        "l"
      ],
      [
        "Bl",
        "ack"
      ],
      [
        "A",
        "r"
      ],
      [
        "L",
        "o"
      ],
      [
        "T",
        "r"
      ],
      [
        "b",
        "ir"
      ],
      [
        "b",
        "ack"
      ],
      [
        "e",
        "a"
      ],
      [
        "e",
        "w"
      ],
      [
        "f",
        "l"
      ],
      [
        "h",
        "pi"
      ],
      [
        "l",
        "l"
      ],
      [
        "m",
        "il"
      ],
      [
        "m",
        "outh"
      ],
      [
        "o",
        "un"
      ],
      [
        "p",
        "oo"
      ],
      [
        "p",
        "al"
      ],
      [
        "r",
        "el"
      ],
      [
        "s",
        "peak"
      ],
      [
        "t",
        "ahk"
      ],
      [
        "t",
        "ake"
      ],
      [
        "z",
        "e"
      ],
      [
        "an",
        "ce"
      ],
      [
        "it",
        "y"
      ],
      [
        "waa",
        "l"
      ],
      [
        "ic",
        "i"
      ],
      [
        "re",
        "ad"
      ],
      [
        "ig",
        "h"
      ],
      [
        "ge",
        "ther"
      ],
      [
        "waap",
        "an"
      ],
      [
        "hš",
        "im"
      ],
      [
        "Th",
        "row"
      ],
      [
        "sp",
        "p"
      ],
      [
        "C",
        "om"
      ],
      [
        "H",
        "o"
      ],
      [
        "L",
        "i"
      ],
      [
        "L",
        "ook"
      ],
      [
        "Q",
        "u"
      ],
      [
        "W",
        "alk"
      ],
      [
        "c",
        "ook"
      ],
      [
        "d",
        "y"
      ],
      [
        "e",
        "y"
      ],
      [
        "h",
        "i"
      ],
      [
        "h",
        "air"
      ],
      [
        "k",
        "ee"
      ],
      [
        "k",
        "it"
      ],
      [
        "k",
        "isi"
      ],
      [
        "l",
        "ight"
      ],
      [
        "m",
        "ist"
      ],
      [
        "o",
        "ver"
      ],
      [
        "o",
        "und"
      ],
      [
        "p",
        "ahk"
      ],
      [
        "t",
        "y"
      ],
      [
        "t",
        "ii"
      ],
      [
        "t",
        "im"
      ],
      [
        "w",
        "om"
      ],
      [
        "y",
        "o"
      ],
      [
        "aa",
        "hs"
      ],
      [
        "in",
        "ci"
      ],
      [
        "in",
        "aakan"
      ],
      [
        "ii",
        "p"
      ],
      [
        "ii",
        "hk"
      ],
      [
        "on",
        "am"
      ],
      [
        "on",
        "ki"
      ],
      [
        "at",
        "ion"
      ],
      [
        "th",
        "ink"
      ],
      [
        "ht",
        "e"
      ],
      [
        "to",
        "gether"
      ],
      [
        "re",
        "at"
      ],
      [
        "aan",
        "k"
      ],
      [
        "ah",
        "w"
      ],
      [
        "ver",
        "y"
      ],
      [
        "pee",
        "hki"
      ],
      [
        "ab",
        "le"
      ],
      [
        "co",
        "ver"
      ],
      [
        "Cr",
        "eek"
      ],
      [
        "gen",
        "eric"
      ],
      [
        "A",
        "n"
      ],
      [
        "E",
        "l"
      ],
      [
        "S",
        "ay"
      ],
      [
        "W",
        "r"
      ],
      [
        "a",
        "x"
      ],
      [
        "a",
        "in"
      ],
      [
        "b",
        "le"
      ],
      [
        "c",
        "or"
      ],
      [
        "c",
        "ome"
      ],
      [
        "d",
        "is"
      ],
      [
        "e",
        "v"
      ],
      [
        "g",
        "h"
      ],
      [
        "h",
        "ot"
      ],
      [
        "k",
        "aahk"
      ],
      [
        "l",
        "en"
      ],
      [
        "l",
        "ar"
      ],
      [
        "m",
        "er"
      ],
      [
        "m",
        "on"
      ],
      [
        "m",
        "eeh"
      ],
      [
        "n",
        "at"
      ],
      [
        "n",
        "ak"
      ],
      [
        "p",
        "re"
      ],
      [
        "s",
        "oon"
      ],
      [
        "s",
        "low"
      ],
      [
        "š",
        "im"
      ],
      [
        "aa",
        "m"
      ],
      [
        "aa",
        "wi"
      ],
      [
        "aa",
        "cim"
      ],
      [
        "in",
        "am"
      ],
      [
        "ee",
        "d"
      ],
      [
        "an",
        "k"
      ],
      [
        "at",
        "w"
      ],
      [
        "waa",
        "m"
      ],
      [
        "waa",
        "pii"
      ],
      [
        "el",
        "e"
      ],
      [
        "om",
        "in"
      ],
      [
        "aan",
        "kw"
      ],
      [
        "pe",
        "m"
      ],
      [
        "ink",
        "wi"
      ],
      [
        "he",
        "at"
      ],
      [
        "id",
        "es"
      ],
      [
        "ell",
        "ow"
      ],
      [
        "eel",
        "intam"
      ],
      [
        "und",
        "er"
      ],
      [
        "sis",
        "ter"
      ],
      [
        "mahk",
        "atee"
      ],
      [
        "clo",
        "th"
      ],
      [
        ".",
        ")"
      ],
      [
        "C",
        "orn"
      ],
      [
        "D",
        "r"
      ],
      [
        "P",
        "o"
      ],
      [
        "P",
        "r"
      ],
      [
        "R",
        "e"
      ],
      [
        "S",
        "o"
      ],
      [
        "W",
        "at"
      ],
      [
        "a",
        "ši"
      ],
      [
        "c",
        "re"
      ],
      [
        "c",
        "orn"
      ],
      [
        "f",
        "ul"
      ],
      [
        "f",
        "low"
      ],
      [
        "g",
        "ive"
      ],
      [
        "h",
        "w"
      ],
      [
        "h",
        "old"
      ],
      [
        "h",
        "igh"
      ],
      [
        "i",
        "hki"
      ],
      [
        "k",
        "oon"
      ],
      [
        "l",
        "ong"
      ],
      [
        "m",
        "en"
      ],
      [
        "m",
        "yaa"
      ],
      [
        "m",
        "yaal"
      ],
      [
        "n",
        "aan"
      ],
      [
        "n",
        "eeh"
      ],
      [
        "n",
        "ip"
      ],
      [
        "p",
        "y"
      ],
      [
        "p",
        "el"
      ],
      [
        "p",
        "es"
      ],
      [
        "p",
        "ot"
      ],
      [
        "s",
        "w"
      ],
      [
        "s",
        "ak"
      ],
      [
        "t",
        "ool"
      ],
      [
        "u",
        "ch"
      ],
      [
        "w",
        "n"
      ],
      [
        "w",
        "ahki"
      ],
      [
        "w",
        "ard"
      ],
      [
        "š",
        "w"
      ],
      [
        "ee",
        "hsi"
      ],
      [
        "er",
        "al"
      ],
      [
        "th",
        "at"
      ],
      [
        "ar",
        "e"
      ],
      [
        "ar",
        "k"
      ],
      [
        "hs",
        "w"
      ],
      [
        "el",
        "f"
      ],
      [
        "le",
        "d"
      ],
      [
        "ro",
        "ss"
      ],
      [
        "il",
        "y"
      ],
      [
        "aw",
        "ay"
      ],
      [
        "kii",
        "l"
      ],
      [
        "tr",
        "i"
      ],
      [
        "ot",
        "aw"
      ],
      [
        "he",
        "al"
      ],
      [
        "id",
        "e"
      ],
      [
        "ho",
        "le"
      ],
      [
        "ho",
        "use"
      ],
      [
        "aap",
        "ow"
      ],
      [
        "eel",
        "im"
      ],
      [
        "ta",
        "wee"
      ],
      [
        "gr",
        "een"
      ],
      [
        "res",
        "s"
      ],
      [
        "acro",
        "ss"
      ],
      [
        "anim",
        "al"
      ],
      [
        "wiihk",
        "ap"
      ],
      [
        "Tr",
        "ee"
      ],
      [
        "wom",
        "an"
      ],
      [
        "A",
        "p"
      ],
      [
        "B",
        "o"
      ],
      [
        "B",
        "el"
      ],
      [
        "E",
        "at"
      ],
      [
        "L",
        "it"
      ],
      [
        "P",
        "er"
      ],
      [
        "R",
        "o"
      ],
      [
        "W",
        "est"
      ],
      [
        "W",
        "arm"
      ],
      [
        "a",
        "f"
      ],
      [
        "a",
        "int"
      ],
      [
        "b",
        "on"
      ],
      [
        "c",
        "in"
      ],
      [
        "c",
        "il"
      ],
      [
        "d",
        "ay"
      ],
      [
        "d",
        "ir"
      ],
      [
        "e",
        "hk"
      ],
      [
        "e",
        "ce"
      ],
      [
        "f",
        "t"
      ],
      [
        "f",
        "all"
      ],
      [
        "f",
        "inish"
      ],
      [
        "h",
        "pik"
      ],
      [
        "k",
        "at"
      ],
      [
        "k",
        "al"
      ],
      [
        "k",
        "ol"
      ],
      [
        "l",
        "aw"
      ],
      [
        "l",
        "eep"
      ],
      [
        "m",
        "ent"
      ],
      [
        "n",
        "ot"
      ],
      [
        "n",
        "um"
      ],
      [
        "n",
        "oohk"
      ],
      [
        "o",
        "hs"
      ],
      [
        "r",
        "ong"
      ],
      [
        "r",
        "oom"
      ],
      [
        "s",
        "un"
      ],
      [
        "s",
        "mall"
      ],
      [
        "t",
        "ur"
      ],
      [
        "w",
        "inter"
      ],
      [
        "w",
        "rong"
      ],
      [
        "in",
        "us"
      ],
      [
        "ee",
        "w"
      ],
      [
        "an",
        "i"
      ],
      [
        "it",
        "i"
      ],
      [
        "er",
        "a"
      ],
      [
        "im",
        "iš"
      ],
      [
        "oo",
        "se"
      ],
      [
        "al",
        "ly"
      ],
      [
        "th",
        "row"
      ],
      [
        "th",
        "read"
      ],
      [
        "hs",
        "it"
      ],
      [
        "hs",
        "et"
      ],
      [
        "pi",
        "ece"
      ],
      [
        "wi",
        "l"
      ],
      [
        "us",
        "t"
      ],
      [
        "ac",
        "c"
      ],
      [
        "aan",
        "ci"
      ],
      [
        "pe",
        "ct"
      ],
      [
        "mi",
        "hk"
      ],
      [
        "ap",
        "le"
      ],
      [
        "kii",
        "ši"
      ],
      [
        "aal",
        "im"
      ],
      [
        "he",
        "ar"
      ],
      [
        "he",
        "ad"
      ],
      [
        "thing",
        "s"
      ],
      [
        "ri",
        "end"
      ],
      [
        "ter",
        "n"
      ],
      [
        "ne",
        "w"
      ],
      [
        "some",
        "one"
      ],
      [
        "ra",
        "in"
      ],
      [
        "ko",
        "ci"
      ],
      [
        "di",
        "ff"
      ],
      [
        "qu",
        "id"
      ],
      [
        "ke",
        "y"
      ],
      [
        "ou",
        "gh"
      ],
      [
        "bl",
        "ack"
      ],
      [
        "ug",
        "ar"
      ],
      [
        "ie",
        "f"
      ],
      [
        "no",
        "se"
      ],
      [
        "wh",
        "ite"
      ],
      [
        "mas",
        "k"
      ],
      [
        "pap",
        "er"
      ],
      [
        "kiš",
        "aa"
      ],
      [
        "rib",
        "bon"
      ],
      [
        "cook",
        "ing"
      ],
      [
        "tim",
        "e"
      ],
      [
        "A",
        "s"
      ],
      [
        "B",
        "at"
      ],
      [
        "B",
        "re"
      ],
      [
        "C",
        "an"
      ],
      [
        "C",
        "at"
      ],
      [
        "H",
        "old"
      ],
      [
        "M",
        "is"
      ],
      [
        "P",
        "ut"
      ],
      [
        "R",
        "ed"
      ],
      [
        "S",
        "it"
      ],
      [
        "S",
        "top"
      ],
      [
        "S",
        "mall"
      ],
      [
        "T",
        "he"
      ],
      [
        "T",
        "alk"
      ],
      [
        "T",
        "here"
      ],
      [
        "W",
        "ear"
      ],
      [
        "W",
        "ild"
      ],
      [
        "Y",
        "oun"
      ],
      [
        "a",
        "it"
      ],
      [
        "b",
        "ow"
      ],
      [
        "c",
        "tion"
      ],
      [
        "d",
        "le"
      ],
      [
        "e",
        "at"
      ],
      [
        "f",
        "ir"
      ],
      [
        "f",
        "riend"
      ],
      [
        "g",
        "g"
      ],
      [
        "h",
        "ur"
      ],
      [
        "k",
        "wi"
      ],
      [
        "k",
        "atoo"
      ],
      [
        "l",
        "ook"
      ],
      [
        "m",
        "oon"
      ],
      [
        "n",
        "ake"
      ],
      [
        "n",
        "eek"
      ],
      [
        "n",
        "ess"
      ],
      [
        "o",
        "c"
      ],
      [
        "o",
        "p"
      ],
      [
        "p",
        "im"
      ],
      [
        "p",
        "at"
      ],
      [
        "p",
        "ink"
      ],
      [
        "p",
        "aap"
      ],
      [
        "p",
        "per"
      ],
      [
        "p",
        "oohk"
      ],
      [
        "p",
        "art"
      ],
      [
        "s",
        "ee"
      ],
      [
        "s",
        "er"
      ],
      [
        "s",
        "al"
      ],
      [
        "s",
        "se"
      ],
      [
        "s",
        "kin"
      ],
      [
        "t",
        "ast"
      ],
      [
        "u",
        "ck"
      ],
      [
        "v",
        "el"
      ],
      [
        "v",
        "irg"
      ],
      [
        "w",
        "ise"
      ],
      [
        "w",
        "ork"
      ],
      [
        "y",
        "a"
      ],
      [
        "y",
        "ellow"
      ],
      [
        "š",
        "aakan"
      ],
      [
        "aa",
        "w"
      ],
      [
        "in",
        "o"
      ],
      [
        "in",
        "ki"
      ],
      [
        "ii",
        "hki"
      ],
      [
        "on",
        "t"
      ],
      [
        "on",
        "es"
      ],
      [
        "at",
        "en"
      ],
      [
        "at",
        "ed"
      ],
      [
        "is",
        "on"
      ],
      [
        "al",
        "em"
      ],
      [
        "en",
        "s"
      ],
      [
        "en",
        "se"
      ],
      [
        "en",
        "ce"
      ],
      [
        "ak",
        "wan"
      ],
      [
        "ar",
        "ound"
      ],
      [
        "or",
        "e"
      ],
      [
        "pi",
        "it"
      ],
      [
        "ing",
        "s"
      ],
      [
        "wi",
        "kaan"
      ],
      [
        "us",
        "ed"
      ],
      [
        "wee",
        "n"
      ],
      [
        "as",
        "i"
      ],
      [
        "aw",
        "n"
      ],
      [
        "ah",
        "i"
      ],
      [
        "ah",
        "wi"
      ],
      [
        "pe",
        "ar"
      ],
      [
        "pe",
        "ht"
      ],
      [
        "mi",
        "hšii"
      ],
      [
        "ad",
        "ensis"
      ],
      [
        "kii",
        "hki"
      ],
      [
        "int",
        "i"
      ],
      [
        "aal",
        "aki"
      ],
      [
        "for",
        "e"
      ],
      [
        "st",
        "and"
      ],
      [
        "st",
        "ory"
      ],
      [
        "ther",
        "e"
      ],
      [
        "ent",
        "er"
      ],
      [
        "li",
        "quid"
      ],
      [
        "wit",
        "eeh"
      ],
      [
        "waap",
        "ow"
      ],
      [
        "wii",
        "ci"
      ],
      [
        "pak",
        "at"
      ],
      [
        "di",
        "re"
      ],
      [
        "maa",
        "wi"
      ],
      [
        "ick",
        "ory"
      ],
      [
        "alaa",
        "mi"
      ],
      [
        "ang",
        "u"
      ],
      [
        "can",
        "adensis"
      ],
      [
        "aapii",
        "kw"
      ],
      [
        "Le",
        "ave"
      ],
      [
        "noon",
        "t"
      ],
      [
        "acro",
        "sse"
      ],
      [
        "Pl",
        "ay"
      ],
      [
        "kaa",
        "tee"
      ],
      [
        "bro",
        "ther"
      ],
      [
        "fi",
        "re"
      ],
      [
        "bir",
        "d"
      ],
      [
        "kee",
        "kaan"
      ],
      [
        "mist",
        "ake"
      ],
      [
        "ev",
        "il"
      ],
      [
        "Wat",
        "er"
      ],
      [
        "ihki",
        "pak"
      ],
      [
        "kišaa",
        "pihk"
      ],
      [
        "Youn",
        "g"
      ],
      [
        "virg",
        "ini"
      ],
      [
        "ones",
        "elf"
      ],
      [
        "A",
        "sh"
      ],
      [
        "B",
        "ar"
      ],
      [
        "B",
        "ut"
      ],
      [
        "B",
        "ig"
      ],
      [
        "C",
        "ol"
      ],
      [
        "C",
        "ho"
      ],
      [
        "C",
        "ross"
      ],
      [
        "D",
        "ance"
      ],
      [
        "E",
        "n"
      ],
      [
        "E",
        "as"
      ],
      [
        "F",
        "inish"
      ],
      [
        "G",
        "row"
      ],
      [
        "G",
        "ive"
      ],
      [
        "L",
        "ake"
      ],
      [
        "M",
        "e"
      ],
      [
        "M",
        "us"
      ],
      [
        "N",
        "e"
      ],
      [
        "O",
        "n"
      ],
      [
        "P",
        "i"
      ],
      [
        "S",
        "ew"
      ],
      [
        "S",
        "ugar"
      ],
      [
        "T",
        "ell"
      ],
      [
        "U",
        "n"
      ],
      [
        "U",
        "r"
      ],
      [
        "V",
        "irg"
      ],
      [
        "W",
        "ood"
      ],
      [
        "W",
        "ash"
      ],
      [
        "a",
        "ut"
      ],
      [
        "b",
        "and"
      ],
      [
        "b",
        "ig"
      ],
      [
        "c",
        "a"
      ],
      [
        "c",
        "ol"
      ],
      [
        "e",
        "š"
      ],
      [
        "f",
        "er"
      ],
      [
        "f",
        "ly"
      ],
      [
        "f",
        "eel"
      ],
      [
        "f",
        "ast"
      ],
      [
        "h",
        "a"
      ],
      [
        "h",
        "c"
      ],
      [
        "h",
        "aw"
      ],
      [
        "j",
        "e"
      ],
      [
        "k",
        "oo"
      ],
      [
        "k",
        "is"
      ],
      [
        "k",
        "waa"
      ],
      [
        "m",
        "us"
      ],
      [
        "m",
        "et"
      ],
      [
        "m",
        "aalhs"
      ],
      [
        "n",
        "ap"
      ],
      [
        "n",
        "ight"
      ],
      [
        "o",
        "e"
      ],
      [
        "o",
        "x"
      ],
      [
        "o",
        "hsee"
      ],
      [
        "p",
        "or"
      ],
      [
        "p",
        "yaa"
      ],
      [
        "r",
        "at"
      ],
      [
        "r",
        "or"
      ],
      [
        "s",
        "to"
      ],
      [
        "s",
        "aki"
      ],
      [
        "s",
        "oft"
      ],
      [
        "u",
        "ff"
      ],
      [
        "y",
        "osi"
      ],
      [
        "aa",
        "pi"
      ],
      [
        "aa",
        "mi"
      ],
      [
        "aa",
        "hsi"
      ],
      [
        "aa",
        "hp"
      ],
      [
        "aa",
        "tawee"
      ],
      [
        "in",
        "a"
      ],
      [
        "in",
        "to"
      ],
      [
        "in",
        "ši"
      ],
      [
        "in",
        "ia"
      ],
      [
        "ee",
        "li"
      ],
      [
        "an",
        "e"
      ],
      [
        "an",
        "us"
      ],
      [
        "an",
        "si"
      ],
      [
        "hk",
        "aa"
      ],
      [
        "er",
        "cus"
      ],
      [
        "ii",
        "kin"
      ],
      [
        "at",
        "us"
      ],
      [
        "oo",
        "hs"
      ],
      [
        "oo",
        "ši"
      ],
      [
        "al",
        "w"
      ],
      [
        "al",
        "is"
      ],
      [
        "al",
        "one"
      ],
      [
        "am",
        "eric"
      ],
      [
        "ak",
        "w"
      ],
      [
        "waa",
        "li"
      ],
      [
        "pi",
        "hsaa"
      ],
      [
        "le",
        "t"
      ],
      [
        "le",
        "ad"
      ],
      [
        "wee",
        "l"
      ],
      [
        "ro",
        "p"
      ],
      [
        "ro",
        "se"
      ],
      [
        "ic",
        "ul"
      ],
      [
        "ahk",
        "w"
      ],
      [
        "ahk",
        "waa"
      ],
      [
        "ahk",
        "wee"
      ],
      [
        "om",
        "i"
      ],
      [
        "re",
        "am"
      ],
      [
        "aan",
        "kwee"
      ],
      [
        "ki",
        "int"
      ],
      [
        "pe",
        "ck"
      ],
      [
        "aahk",
        "wi"
      ],
      [
        "aahk",
        "wee"
      ],
      [
        "aahk",
        "ohk"
      ],
      [
        "un",
        "k"
      ],
      [
        "un",
        "t"
      ],
      [
        "mi",
        "hte"
      ],
      [
        "ap",
        "in"
      ],
      [
        "ad",
        "e"
      ],
      [
        "ed",
        "ic"
      ],
      [
        "and",
        "y"
      ],
      [
        "ur",
        "se"
      ],
      [
        "ch",
        "ief"
      ],
      [
        "id",
        "ge"
      ],
      [
        "st",
        "ick"
      ],
      [
        "ther",
        "n"
      ],
      [
        "ent",
        "ly"
      ],
      [
        "ant",
        "aakan"
      ],
      [
        "um",
        "p"
      ],
      [
        "waap",
        "am"
      ],
      [
        "ri",
        "pe"
      ],
      [
        "ra",
        "id"
      ],
      [
        "em",
        "ale"
      ],
      [
        "oohk",
        "ii"
      ],
      [
        "oohk",
        "oon"
      ],
      [
        "cii",
        "hs"
      ],
      [
        "ko",
        "ciihs"
      ],
      [
        "nii",
        "hpik"
      ],
      [
        "sh",
        "ort"
      ],
      [
        "fro",
        "g"
      ],
      [
        "me",
        "hk"
      ],
      [
        "moo",
        "š"
      ],
      [
        "Ch",
        "ange"
      ],
      [
        "mee",
        "ht"
      ],
      [
        "con",
        "t"
      ],
      [
        "we",
        "ather"
      ],
      [
        "Br",
        "ing"
      ],
      [
        "gen",
        "eral"
      ],
      [
        "aapii",
        "k"
      ],
      [
        "eens",
        "ee"
      ],
      [
        "Car",
        "ry"
      ],
      [
        "Car",
        "ya"
      ],
      [
        "cle",
        "ar"
      ],
      [
        "naa",
        "pi"
      ],
      [
        "aaš",
        "oohkoon"
      ],
      [
        "anim",
        "ate"
      ],
      [
        "Bu",
        "ck"
      ],
      [
        "bre",
        "ast"
      ],
      [
        "dr",
        "ink"
      ],
      [
        "Li",
        "ke"
      ],
      [
        "Qu",
        "ercus"
      ],
      [
        "waapii",
        "kw"
      ],
      [
        "omin",
        "y"
      ],
      [
        "myaa",
        "mi"
      ],
      [
        "neeh",
        "pik"
      ],
      [
        "ward",
        "s"
      ],
      [
        "dir",
        "ty"
      ],
      [
        "dire",
        "ction"
      ],
      [
        "angu",
        "age"
      ],
      [
        "Eas",
        "tern"
      ],
      [
        "Virg",
        "inia"
      ],
      [
        "americ",
        "ana"
      ],
      [
        "peck",
        "er"
      ],
      [
        ".",
        "),"
      ],
      [
        "A",
        "c"
      ],
      [
        "A",
        "l"
      ],
      [
        "B",
        "low"
      ],
      [
        "B",
        "ull"
      ],
      [
        "D",
        "is"
      ],
      [
        "F",
        "l"
      ],
      [
        "F",
        "ra"
      ],
      [
        "G",
        "l"
      ],
      [
        "H",
        "ear"
      ],
      [
        "H",
        "air"
      ],
      [
        "M",
        "i"
      ],
      [
        "M",
        "or"
      ],
      [
        "M",
        "ic"
      ],
      [
        "M",
        "aple"
      ],
      [
        "O",
        "ak"
      ],
      [
        "P",
        "ick"
      ],
      [
        "P",
        "res"
      ],
      [
        "P",
        "aint"
      ],
      [
        "R",
        "es"
      ],
      [
        "R",
        "un"
      ],
      [
        "S",
        "pi"
      ],
      [
        "S",
        "ho"
      ],
      [
        "S",
        "oft"
      ],
      [
        "W",
        "al"
      ],
      [
        "W",
        "ork"
      ],
      [
        "a",
        "e"
      ],
      [
        "a",
        "š"
      ],
      [
        "a",
        "waan"
      ],
      [
        "b",
        "at"
      ],
      [
        "b",
        "ut"
      ],
      [
        "b",
        "all"
      ],
      [
        "c",
        "y"
      ],
      [
        "c",
        "aa"
      ],
      [
        "c",
        "up"
      ],
      [
        "d",
        "s"
      ],
      [
        "d",
        "es"
      ],
      [
        "d",
        "ent"
      ],
      [
        "d",
        "ress"
      ],
      [
        "f",
        "ood"
      ],
      [
        "f",
        "oot"
      ],
      [
        "g",
        "ar"
      ],
      [
        "g",
        "us"
      ],
      [
        "g",
        "ni"
      ],
      [
        "h",
        "it"
      ],
      [
        "h",
        "ap"
      ],
      [
        "h",
        "ard"
      ],
      [
        "h",
        "ominy"
      ],
      [
        "i",
        "hs"
      ],
      [
        "j",
        "o"
      ],
      [
        "k",
        "y"
      ],
      [
        "k",
        "ap"
      ],
      [
        "k",
        "oohk"
      ],
      [
        "l",
        "anguage"
      ],
      [
        "m",
        "a"
      ],
      [
        "m",
        "is"
      ],
      [
        "m",
        "ar"
      ],
      [
        "m",
        "ay"
      ],
      [
        "m",
        "ell"
      ],
      [
        "m",
        "aht"
      ],
      [
        "n",
        "a"
      ],
      [
        "n",
        "ice"
      ],
      [
        "o",
        "pen"
      ],
      [
        "o",
        "ides"
      ],
      [
        "p",
        "s"
      ],
      [
        "p",
        "it"
      ],
      [
        "p",
        "aan"
      ],
      [
        "p",
        "ul"
      ],
      [
        "r",
        "it"
      ],
      [
        "r",
        "on"
      ],
      [
        "r",
        "un"
      ],
      [
        "r",
        "ight"
      ],
      [
        "s",
        "it"
      ],
      [
        "s",
        "oo"
      ],
      [
        "s",
        "us"
      ],
      [
        "s",
        "ay"
      ],
      [
        "s",
        "aakan"
      ],
      [
        "s",
        "ho"
      ],
      [
        "s",
        "top"
      ],
      [
        "s",
        "leep"
      ],
      [
        "s",
        "nake"
      ],
      [
        "t",
        "t"
      ],
      [
        "t",
        "on"
      ],
      [
        "t",
        "at"
      ],
      [
        "t",
        "urn"
      ],
      [
        "u",
        "c"
      ],
      [
        "u",
        "it"
      ],
      [
        "u",
        "th"
      ],
      [
        "v",
        "ing"
      ],
      [
        "v",
        "ul"
      ],
      [
        "w",
        "ar"
      ],
      [
        "w",
        "or"
      ],
      [
        "w",
        "ho"
      ],
      [
        "w",
        "arm"
      ],
      [
        "w",
        "here"
      ],
      [
        "y",
        "e"
      ],
      [
        "y",
        "l"
      ],
      [
        "y",
        "aak"
      ],
      [
        "aa",
        "hši"
      ],
      [
        "ee",
        "r"
      ],
      [
        "hk",
        "in"
      ],
      [
        "ii",
        "h"
      ],
      [
        "ii",
        "ht"
      ],
      [
        "ii",
        "ki"
      ],
      [
        "on",
        "k"
      ],
      [
        "on",
        "aakan"
      ],
      [
        "oo",
        "š"
      ],
      [
        "oo",
        "ki"
      ],
      [
        "is",
        "am"
      ],
      [
        "al",
        "i"
      ],
      [
        "al",
        "o"
      ],
      [
        "al",
        "oo"
      ],
      [
        "al",
        "us"
      ],
      [
        "am",
        "ee"
      ],
      [
        "am",
        "ii"
      ],
      [
        "am",
        "on"
      ],
      [
        "am",
        "aw"
      ],
      [
        "en",
        "am"
      ],
      [
        "en",
        "ough"
      ],
      [
        "ak",
        "im"
      ],
      [
        "th",
        "is"
      ],
      [
        "hs",
        "in"
      ],
      [
        "hs",
        "am"
      ],
      [
        "or",
        "se"
      ],
      [
        "or",
        "ia"
      ],
      [
        "or",
        "thern"
      ],
      [
        "waa",
        "wi"
      ],
      [
        "waa",
        "wii"
      ],
      [
        "el",
        "d"
      ],
      [
        "el",
        "se"
      ],
      [
        "ht",
        "ee"
      ],
      [
        "le",
        "ct"
      ],
      [
        "ac",
        "t"
      ],
      [
        "ac",
        "ii"
      ],
      [
        "wee",
        "wee"
      ],
      [
        "as",
        "p"
      ],
      [
        "il",
        "ee"
      ],
      [
        "il",
        "eni"
      ],
      [
        "to",
        "e"
      ],
      [
        "om",
        "est"
      ],
      [
        "mi",
        "x"
      ],
      [
        "mi",
        "hs"
      ],
      [
        "mi",
        "inci"
      ],
      [
        "ink",
        "ii"
      ],
      [
        "ink",
        "waakan"
      ],
      [
        "ad",
        "le"
      ],
      [
        "ši",
        "k"
      ],
      [
        "tr",
        "ail"
      ],
      [
        "tr",
        "ait"
      ],
      [
        "ot",
        "am"
      ],
      [
        "ur",
        "us"
      ],
      [
        "ch",
        "ange"
      ],
      [
        "pii",
        "ci"
      ],
      [
        "int",
        "aakan"
      ],
      [
        "kw",
        "an"
      ],
      [
        "kw",
        "ii"
      ],
      [
        "ant",
        "ee"
      ],
      [
        "kin",
        "oon"
      ],
      [
        "hsi",
        "inkwee"
      ],
      [
        "waap",
        "ink"
      ],
      [
        "waap",
        "ant"
      ],
      [
        "old",
        "er"
      ],
      [
        "ra",
        "pe"
      ],
      [
        "ahki",
        "hkw"
      ],
      [
        "pak",
        "it"
      ],
      [
        "co",
        "un"
      ],
      [
        "co",
        "gni"
      ],
      [
        "nii",
        "l"
      ],
      [
        "nii",
        "hpi"
      ],
      [
        "ct",
        "or"
      ],
      [
        "hp",
        "en"
      ],
      [
        "oons",
        "aay"
      ],
      [
        "so",
        "up"
      ],
      [
        "me",
        "ht"
      ],
      [
        "ine",
        "hkii"
      ],
      [
        "Bl",
        "ue"
      ],
      [
        "hand",
        "s"
      ],
      [
        "bl",
        "ue"
      ],
      [
        "awee",
        "l"
      ],
      [
        "awee",
        "n"
      ],
      [
        "poon",
        "i"
      ],
      [
        "wan",
        "i"
      ],
      [
        "inaak",
        "wat"
      ],
      [
        "ang",
        "ry"
      ],
      [
        "paa",
        "hp"
      ],
      [
        "aht",
        "e"
      ],
      [
        "can",
        "oe"
      ],
      [
        "if",
        "e"
      ],
      [
        "bad",
        "ly"
      ],
      [
        "ex",
        "cl"
      ],
      [
        "com",
        "es"
      ],
      [
        "kot",
        "ak"
      ],
      [
        "br",
        "ush"
      ],
      [
        "fe",
        "ather"
      ],
      [
        "oonsaa",
        "wi"
      ],
      [
        "mel",
        "on"
      ],
      [
        "Pe",
        "oria"
      ],
      [
        "bir",
        "th"
      ],
      [
        "poo",
        "hki"
      ],
      [
        "kisi",
        "hs"
      ],
      [
        "cor",
        "d"
      ],
      [
        "meeh",
        "ci"
      ],
      [
        "Dr",
        "aw"
      ],
      [
        "Lit",
        "tle"
      ],
      [
        "tur",
        "tle"
      ],
      [
        "imiš",
        "aahkw"
      ],
      [
        "Bre",
        "ak"
      ],
      [
        "eat",
        "ing"
      ],
      [
        "aalaki",
        "inkwee"
      ],
      [
        "witeeh",
        "ee"
      ],
      [
        "But",
        "ter"
      ],
      [
        "Wood",
        "pecker"
      ],
      [
        "edic",
        "ine"
      ],
      [
        "paan",
        "ko"
      ],
      [
        "cogni",
        "ze"
      ],
      [
        "A",
        "d"
      ],
      [
        "B",
        "ad"
      ],
      [
        "C",
        "o"
      ],
      [
        "C",
        "ap"
      ],
      [
        "C",
        "her"
      ],
      [
        "C",
        "oun"
      ],
      [
        "D",
        "e"
      ],
      [
        "F",
        "i"
      ],
      [
        "F",
        "or"
      ],
      [
        "F",
        "ly"
      ],
      [
        "F",
        "ish"
      ],
      [
        "F",
        "emale"
      ],
      [
        "G",
        "ather"
      ],
      [
        "G",
        "reat"
      ],
      [
        "H",
        "ur"
      ],
      [
        "H",
        "orn"
      ],
      [
        "I",
        "ll"
      ],
      [
        "I",
        "ron"
      ],
      [
        "J",
        "o"
      ],
      [
        "L",
        "acrosse"
      ],
      [
        "M",
        "an"
      ],
      [
        "M",
        "er"
      ],
      [
        "M",
        "ar"
      ],
      [
        "M",
        "il"
      ],
      [
        "M",
        "oon"
      ],
      [
        "M",
        "edicine"
      ],
      [
        "N",
        "o"
      ],
      [
        "N",
        "urse"
      ],
      [
        "O",
        "hi"
      ],
      [
        "P",
        "en"
      ],
      [
        "P",
        "ad"
      ],
      [
        "R",
        "em"
      ],
      [
        "S",
        "w"
      ],
      [
        "T",
        "oo"
      ],
      [
        "T",
        "ur"
      ],
      [
        "T",
        "est"
      ],
      [
        "a",
        "z"
      ],
      [
        "a",
        "gr"
      ],
      [
        "a",
        "ug"
      ],
      [
        "b",
        "ur"
      ],
      [
        "b",
        "one"
      ],
      [
        "b",
        "ab"
      ],
      [
        "b",
        "urn"
      ],
      [
        "b",
        "ark"
      ],
      [
        "c",
        "tr"
      ],
      [
        "c",
        "ul"
      ],
      [
        "c",
        "all"
      ],
      [
        "c",
        "ard"
      ],
      [
        "c",
        "eek"
      ],
      [
        "d",
        "en"
      ],
      [
        "d",
        "ge"
      ],
      [
        "d",
        "ri"
      ],
      [
        "d",
        "ry"
      ],
      [
        "d",
        "awn"
      ],
      [
        "f",
        "ar"
      ],
      [
        "f",
        "ter"
      ],
      [
        "f",
        "use"
      ],
      [
        "g",
        "er"
      ],
      [
        "g",
        "ro"
      ],
      [
        "g",
        "rape"
      ],
      [
        "h",
        "at"
      ],
      [
        "h",
        "en"
      ],
      [
        "h",
        "un"
      ],
      [
        "h",
        "ickory"
      ],
      [
        "k",
        "ahk"
      ],
      [
        "k",
        "ah"
      ],
      [
        "k",
        "aap"
      ],
      [
        "k",
        "yaa"
      ],
      [
        "k",
        "now"
      ],
      [
        "l",
        "ast"
      ],
      [
        "m",
        "ak"
      ],
      [
        "n",
        "y"
      ],
      [
        "n",
        "ig"
      ],
      [
        "n",
        "aap"
      ],
      [
        "n",
        "ool"
      ],
      [
        "n",
        "alaa"
      ],
      [
        "o",
        "pakat"
      ],
      [
        "p",
        "ow"
      ],
      [
        "p",
        "ah"
      ],
      [
        "p",
        "aahk"
      ],
      [
        "p",
        "ur"
      ],
      [
        "p",
        "ho"
      ],
      [
        "p",
        "ort"
      ],
      [
        "r",
        "ing"
      ],
      [
        "s",
        "wi"
      ],
      [
        "s",
        "ac"
      ],
      [
        "s",
        "pe"
      ],
      [
        "s",
        "ol"
      ],
      [
        "s",
        "et"
      ],
      [
        "s",
        "ent"
      ],
      [
        "s",
        "koon"
      ],
      [
        "s",
        "andy"
      ],
      [
        "s",
        "eensee"
      ],
      [
        "t",
        "w"
      ],
      [
        "t",
        "aan"
      ],
      [
        "t",
        "ap"
      ],
      [
        "t",
        "ahki"
      ],
      [
        "t",
        "ure"
      ],
      [
        "t",
        "able"
      ],
      [
        "v",
        "o"
      ],
      [
        "v",
        "en"
      ],
      [
        "w",
        "in"
      ],
      [
        "w",
        "api"
      ],
      [
        "w",
        "ind"
      ],
      [
        "w",
        "imin"
      ],
      [
        "x",
        "inus"
      ],
      [
        "y",
        "ohk"
      ],
      [
        "š",
        "it"
      ],
      [
        "aa",
        "tam"
      ],
      [
        "in",
        "ensis"
      ],
      [
        "ee",
        "pi"
      ],
      [
        "ee",
        "wi"
      ],
      [
        "an",
        "c"
      ],
      [
        "an",
        "ki"
      ],
      [
        "hk",
        "am"
      ],
      [
        "hk",
        "wee"
      ],
      [
        "it",
        "a"
      ],
      [
        "er",
        "v"
      ],
      [
        "er",
        "ent"
      ],
      [
        "er",
        "ous"
      ],
      [
        "ii",
        "hsi"
      ],
      [
        "on",
        "or"
      ],
      [
        "on",
        "ci"
      ],
      [
        "on",
        "ly"
      ],
      [
        "im",
        "b"
      ],
      [
        "im",
        "ot"
      ],
      [
        "at",
        "o"
      ],
      [
        "at",
        "ive"
      ],
      [
        "oo",
        "s"
      ],
      [
        "oo",
        "ci"
      ],
      [
        "oo",
        "hki"
      ],
      [
        "oo",
        "hsi"
      ],
      [
        "oo",
        "kan"
      ],
      [
        "is",
        "inaakan"
      ],
      [
        "al",
        "en"
      ],
      [
        "al",
        "aakan"
      ],
      [
        "al",
        "eel"
      ],
      [
        "al",
        "ia"
      ],
      [
        "al",
        "eni"
      ],
      [
        "al",
        "aankw"
      ],
      [
        "ak",
        "en"
      ],
      [
        "ak",
        "aawi"
      ],
      [
        "th",
        "us"
      ],
      [
        "ar",
        "ge"
      ],
      [
        "ar",
        "row"
      ],
      [
        "hs",
        "ak"
      ],
      [
        "hs",
        "aakan"
      ],
      [
        "or",
        "i"
      ],
      [
        "waa",
        "h"
      ],
      [
        "waa",
        "hki"
      ],
      [
        "pi",
        "int"
      ],
      [
        "wi",
        "hk"
      ],
      [
        "le",
        "ave"
      ],
      [
        "aak",
        "alaa"
      ],
      [
        "ac",
        "co"
      ],
      [
        "wee",
        "t"
      ],
      [
        "wee",
        "li"
      ],
      [
        "wee",
        "yo"
      ],
      [
        "ro",
        "pe"
      ],
      [
        "ro",
        "ck"
      ],
      [
        "ro",
        "ug"
      ],
      [
        "as",
        "in"
      ],
      [
        "es",
        "i"
      ],
      [
        "ic",
        "an"
      ],
      [
        "ic",
        "ii"
      ],
      [
        "il",
        "i"
      ],
      [
        "to",
        "gr"
      ],
      [
        "to",
        "wn"
      ],
      [
        "to",
        "wards"
      ],
      [
        "ahk",
        "a"
      ],
      [
        "ahk",
        "wat"
      ],
      [
        "ahk",
        "waan"
      ],
      [
        "ahk",
        "wan"
      ],
      [
        "om",
        "a"
      ],
      [
        "re",
        "ach"
      ],
      [
        "ut",
        "e"
      ],
      [
        "aw",
        "iil"
      ],
      [
        "ki",
        "p"
      ],
      [
        "ah",
        "šit"
      ],
      [
        "pe",
        "hci"
      ],
      [
        "mi",
        "hš"
      ],
      [
        "ap",
        "h"
      ],
      [
        "ap",
        "er"
      ],
      [
        "ci",
        "inkwee"
      ],
      [
        "ci",
        "dent"
      ],
      [
        "ol",
        "i"
      ],
      [
        "ot",
        "a"
      ],
      [
        "si",
        "on"
      ],
      [
        "et",
        "tle"
      ],
      [
        "ur",
        "a"
      ],
      [
        "ch",
        "ild"
      ],
      [
        "eeh",
        "ši"
      ],
      [
        "he",
        "av"
      ],
      [
        "pee",
        "l"
      ],
      [
        "pee",
        "ch"
      ],
      [
        "for",
        "m"
      ],
      [
        "st",
        "one"
      ],
      [
        "een",
        "i"
      ],
      [
        "een",
        "ti"
      ],
      [
        "be",
        "ing"
      ],
      [
        "be",
        "aut"
      ],
      [
        "li",
        "es"
      ],
      [
        "li",
        "ke"
      ],
      [
        "kin",
        "am"
      ],
      [
        "lo",
        "ck"
      ],
      [
        "lo",
        "cat"
      ],
      [
        "aap",
        "o"
      ],
      [
        "kan",
        "i"
      ],
      [
        "ri",
        "ve"
      ],
      [
        "ri",
        "ver"
      ],
      [
        "eel",
        "otaw"
      ],
      [
        "all",
        "ow"
      ],
      [
        "per",
        "s"
      ],
      [
        "ra",
        "ins"
      ],
      [
        "pak",
        "w"
      ],
      [
        "pak",
        "aan"
      ],
      [
        "nii",
        "š"
      ],
      [
        "nii",
        "mi"
      ],
      [
        "tee",
        "p"
      ],
      [
        "maa",
        "cii"
      ],
      [
        "pl",
        "an"
      ],
      [
        "pl",
        "ay"
      ],
      [
        "qu",
        "it"
      ],
      [
        "qu",
        "ick"
      ],
      [
        "est",
        "le"
      ],
      [
        "man",
        "et"
      ],
      [
        "man",
        "kiiš"
      ],
      [
        "hkw",
        "an"
      ],
      [
        "oot",
        "ay"
      ],
      [
        "ill",
        "age"
      ],
      [
        "Th",
        "ink"
      ],
      [
        "moo",
        "y"
      ],
      [
        "moo",
        "hs"
      ],
      [
        "ohk",
        "ii"
      ],
      [
        "we",
        "ši"
      ],
      [
        "alaa",
        "m"
      ],
      [
        "bo",
        "dy"
      ],
      [
        "mal",
        "eeh"
      ],
      [
        "paa",
        "hpi"
      ],
      [
        "paa",
        "skoon"
      ],
      [
        "aht",
        "awaan"
      ],
      [
        "if",
        "ul"
      ],
      [
        "if",
        "era"
      ],
      [
        "Br",
        "ass"
      ],
      [
        "clo",
        "thing"
      ],
      [
        "mo",
        "st"
      ],
      [
        "aay",
        "o"
      ],
      [
        "off",
        "ee"
      ],
      [
        "too",
        "pi"
      ],
      [
        "Sh",
        "oot"
      ],
      [
        "Indi",
        "an"
      ],
      [
        "av",
        "es"
      ],
      [
        "Gr",
        "een"
      ],
      [
        "kot",
        "ee"
      ],
      [
        "fish",
        "ing"
      ],
      [
        "nee",
        "ht"
      ],
      [
        "os",
        "a"
      ],
      [
        "wh",
        "en"
      ],
      [
        "nep",
        "w"
      ],
      [
        "car",
        "e"
      ],
      [
        "car",
        "ol"
      ],
      [
        "mas",
        "aan"
      ],
      [
        "pan",
        "ki"
      ],
      [
        "aalhs",
        "oohk"
      ],
      [
        "miihk",
        "im"
      ],
      [
        "Do",
        "g"
      ],
      [
        "pro",
        "per"
      ],
      [
        "akii",
        "hi"
      ],
      [
        "kihki",
        "inkwee"
      ],
      [
        "miš",
        "aahkw"
      ],
      [
        "gl",
        "ass"
      ],
      [
        "ey",
        "e"
      ],
      [
        "cover",
        "s"
      ],
      [
        "El",
        "k"
      ],
      [
        "slow",
        "ly"
      ],
      [
        "under",
        "stand"
      ],
      [
        "flow",
        "s"
      ],
      [
        "Ap",
        "ple"
      ],
      [
        "Ap",
        "pear"
      ],
      [
        "Bo",
        "il"
      ],
      [
        "Per",
        "son"
      ],
      [
        "Ro",
        "ast"
      ],
      [
        "kol",
        "ee"
      ],
      [
        "wrong",
        "ly"
      ],
      [
        "hset",
        "oo"
      ],
      [
        "koci",
        "htam"
      ],
      [
        "diff",
        "icul"
      ],
      [
        "fir",
        "m"
      ],
      [
        "hur",
        "ry"
      ],
      [
        "neek",
        "awi"
      ],
      [
        "part",
        "y"
      ],
      [
        "tast",
        "es"
      ],
      [
        "ino",
        "is"
      ],
      [
        "mihšii",
        "wi"
      ],
      [
        "virgini",
        "ana"
      ],
      [
        "Col",
        "lect"
      ],
      [
        "por",
        "trait"
      ],
      [
        "lead",
        "er"
      ],
      [
        "Fra",
        "xinus"
      ],
      [
        "Wal",
        "nut"
      ],
      [
        "paanko",
        "saakan"
      ],
      [
        "Ill",
        "inois"
      ],
      [
        "Ohi",
        "o"
      ],
      [
        "Pad",
        "dle"
      ],
      [
        "nalaa",
        "wahki"
      ],
      [
        "pho",
        "togr"
      ],
      [
        "spe",
        "ci"
      ],
      [
        "aakalaa",
        "hšim"
      ],
      [
        "beaut",
        "iful"
      ],
      [
        "quick",
        "ly"
      ],
      [
        "paaskoon",
        "ti"
      ],
      [
        "difficul",
        "t"
      ],
      [
        "photogr",
        "aph"
      ],
      [
        "A",
        "g"
      ],
      [
        "A",
        "ll"
      ],
      [
        "A",
        "fter"
      ],
      [
        "B",
        "ite"
      ],
      [
        "C",
        "a"
      ],
      [
        "C",
        "l"
      ],
      [
        "C",
        "y"
      ],
      [
        "C",
        "al"
      ],
      [
        "C",
        "or"
      ],
      [
        "C",
        "le"
      ],
      [
        "C",
        "enter"
      ],
      [
        "C",
        "offee"
      ],
      [
        "D",
        "ig"
      ],
      [
        "D",
        "ou"
      ],
      [
        "D",
        "ress"
      ],
      [
        "E",
        "x"
      ],
      [
        "E",
        "ar"
      ],
      [
        "E",
        "ast"
      ],
      [
        "E",
        "gg"
      ],
      [
        "F",
        "e"
      ],
      [
        "F",
        "ro"
      ],
      [
        "F",
        "ol"
      ],
      [
        "F",
        "et"
      ],
      [
        "F",
        "all"
      ],
      [
        "F",
        "ork"
      ],
      [
        "F",
        "ox"
      ],
      [
        "G",
        "en"
      ],
      [
        "G",
        "round"
      ],
      [
        "G",
        "oose"
      ],
      [
        "H",
        "er"
      ],
      [
        "H",
        "el"
      ],
      [
        "H",
        "ow"
      ],
      [
        "H",
        "and"
      ],
      [
        "H",
        "ide"
      ],
      [
        "H",
        "ickory"
      ],
      [
        "H",
        "orse"
      ],
      [
        "I",
        "ce"
      ],
      [
        "J",
        "ump"
      ],
      [
        "K",
        "n"
      ],
      [
        "K",
        "ill"
      ],
      [
        "K",
        "ans"
      ],
      [
        "L",
        "am"
      ],
      [
        "L",
        "ay"
      ],
      [
        "L",
        "ong"
      ],
      [
        "L",
        "ive"
      ],
      [
        "L",
        "ie"
      ],
      [
        "M",
        "on"
      ],
      [
        "M",
        "el"
      ],
      [
        "M",
        "ay"
      ],
      [
        "N",
        "orthern"
      ],
      [
        "O",
        "k"
      ],
      [
        "O",
        "ne"
      ],
      [
        "O",
        "ff"
      ],
      [
        "P",
        "or"
      ],
      [
        "P",
        "ro"
      ],
      [
        "P",
        "re"
      ],
      [
        "P",
        "ot"
      ],
      [
        "R",
        "ub"
      ],
      [
        "R",
        "acc"
      ],
      [
        "S",
        "c"
      ],
      [
        "S",
        "ee"
      ],
      [
        "S",
        "al"
      ],
      [
        "S",
        "to"
      ],
      [
        "S",
        "un"
      ],
      [
        "S",
        "ci"
      ],
      [
        "S",
        "and"
      ],
      [
        "S",
        "ur"
      ],
      [
        "S",
        "qu"
      ],
      [
        "S",
        "ass"
      ],
      [
        "S",
        "cr"
      ],
      [
        "S",
        "now"
      ],
      [
        "S",
        "tri"
      ],
      [
        "S",
        "ense"
      ],
      [
        "S",
        "mell"
      ],
      [
        "T",
        "at"
      ],
      [
        "T",
        "wi"
      ],
      [
        "T",
        "ra"
      ],
      [
        "T",
        "rib"
      ],
      [
        "T",
        "ea"
      ],
      [
        "V",
        "it"
      ],
      [
        "V",
        "ul"
      ],
      [
        "W",
        "e"
      ],
      [
        "W",
        "ar"
      ],
      [
        "W",
        "ab"
      ],
      [
        "Y",
        "ear"
      ],
      [
        "Y",
        "ellow"
      ],
      [
        "a",
        "u"
      ],
      [
        "a",
        "pe"
      ],
      [
        "a",
        "ff"
      ],
      [
        "a",
        "fr"
      ],
      [
        "b",
        "u"
      ],
      [
        "b",
        "us"
      ],
      [
        "b",
        "ass"
      ],
      [
        "b",
        "ush"
      ],
      [
        "b",
        "acco"
      ],
      [
        "c",
        "c"
      ],
      [
        "c",
        "ur"
      ],
      [
        "c",
        "aahkw"
      ],
      [
        "c",
        "inaakosi"
      ],
      [
        "c",
        "ross"
      ],
      [
        "d",
        "a"
      ],
      [
        "d",
        "on"
      ],
      [
        "d",
        "el"
      ],
      [
        "d",
        "ance"
      ],
      [
        "d",
        "ark"
      ],
      [
        "d",
        "eer"
      ],
      [
        "d",
        "omest"
      ],
      [
        "e",
        "as"
      ],
      [
        "e",
        "ver"
      ],
      [
        "e",
        "hki"
      ],
      [
        "e",
        "very"
      ],
      [
        "e",
        "gus"
      ],
      [
        "f",
        "am"
      ],
      [
        "f",
        "un"
      ],
      [
        "f",
        "ear"
      ],
      [
        "f",
        "ather"
      ],
      [
        "f",
        "eet"
      ],
      [
        "g",
        "n"
      ],
      [
        "g",
        "u"
      ],
      [
        "g",
        "in"
      ],
      [
        "g",
        "ir"
      ],
      [
        "g",
        "ard"
      ],
      [
        "g",
        "ather"
      ],
      [
        "g",
        "ame"
      ],
      [
        "h",
        "y"
      ],
      [
        "h",
        "us"
      ],
      [
        "h",
        "as"
      ],
      [
        "h",
        "ow"
      ],
      [
        "h",
        "aakan"
      ],
      [
        "h",
        "pii"
      ],
      [
        "h",
        "pee"
      ],
      [
        "h",
        "ill"
      ],
      [
        "h",
        "ip"
      ],
      [
        "h",
        "ang"
      ],
      [
        "h",
        "ide"
      ],
      [
        "i",
        "hk"
      ],
      [
        "k",
        "en"
      ],
      [
        "k",
        "ak"
      ],
      [
        "k",
        "aak"
      ],
      [
        "k",
        "aw"
      ],
      [
        "k",
        "aal"
      ],
      [
        "k",
        "waap"
      ],
      [
        "k",
        "ahki"
      ],
      [
        "k",
        "itee"
      ],
      [
        "k",
        "aahkii"
      ],
      [
        "k",
        "aakii"
      ],
      [
        "k",
        "aši"
      ],
      [
        "k",
        "aalakiinkwee"
      ],
      [
        "l",
        "it"
      ],
      [
        "l",
        "at"
      ],
      [
        "l",
        "ah"
      ],
      [
        "l",
        "ap"
      ],
      [
        "l",
        "ot"
      ],
      [
        "l",
        "acrosse"
      ],
      [
        "m",
        "un"
      ],
      [
        "m",
        "ad"
      ],
      [
        "m",
        "ool"
      ],
      [
        "m",
        "aci"
      ],
      [
        "m",
        "uch"
      ],
      [
        "m",
        "aple"
      ],
      [
        "n",
        "en"
      ],
      [
        "n",
        "ing"
      ],
      [
        "n",
        "ay"
      ],
      [
        "n",
        "et"
      ],
      [
        "n",
        "ata"
      ],
      [
        "o",
        "ak"
      ],
      [
        "o",
        "šam"
      ],
      [
        "p",
        "t"
      ],
      [
        "p",
        "aak"
      ],
      [
        "p",
        "aw"
      ],
      [
        "p",
        "ay"
      ],
      [
        "p",
        "aahkw"
      ],
      [
        "p",
        "ast"
      ],
      [
        "p",
        "ahs"
      ],
      [
        "p",
        "res"
      ],
      [
        "p",
        "ath"
      ],
      [
        "p",
        "aint"
      ],
      [
        "r",
        "u"
      ],
      [
        "r",
        "en"
      ],
      [
        "r",
        "ent"
      ],
      [
        "r",
        "est"
      ],
      [
        "r",
        "oot"
      ],
      [
        "r",
        "ub"
      ],
      [
        "s",
        "l"
      ],
      [
        "s",
        "pi"
      ],
      [
        "s",
        "ur"
      ],
      [
        "s",
        "ick"
      ],
      [
        "s",
        "eek"
      ],
      [
        "s",
        "now"
      ],
      [
        "s",
        "aaki"
      ],
      [
        "s",
        "aakii"
      ],
      [
        "s",
        "peech"
      ],
      [
        "t",
        "is"
      ],
      [
        "t",
        "en"
      ],
      [
        "t",
        "ak"
      ],
      [
        "t",
        "aakan"
      ],
      [
        "t",
        "all"
      ],
      [
        "t",
        "oohk"
      ],
      [
        "t",
        "reat"
      ],
      [
        "u",
        "ct"
      ],
      [
        "u",
        "ice"
      ],
      [
        "v",
        "est"
      ],
      [
        "v",
        "illage"
      ],
      [
        "w",
        "l"
      ],
      [
        "w",
        "ear"
      ],
      [
        "w",
        "alk"
      ],
      [
        "w",
        "ash"
      ],
      [
        "y",
        "r"
      ],
      [
        "y",
        "s"
      ],
      [
        "y",
        "om"
      ],
      [
        "y",
        "aahkwee"
      ],
      [
        "z",
        "z"
      ],
      [
        "z",
        "en"
      ],
      [
        "š",
        "in"
      ],
      [
        "š",
        "aahkw"
      ],
      [
        "aa",
        "wee"
      ],
      [
        "aa",
        "maa"
      ],
      [
        "aa",
        "yaa"
      ],
      [
        "aa",
        "tii"
      ],
      [
        "aa",
        "ha"
      ],
      [
        "in",
        "c"
      ],
      [
        "in",
        "side"
      ],
      [
        "in",
        "iiki"
      ],
      [
        "ee",
        "y"
      ],
      [
        "ee",
        "hk"
      ],
      [
        "ee",
        "hs"
      ],
      [
        "ee",
        "šaakan"
      ],
      [
        "an",
        "ci"
      ],
      [
        "an",
        "ti"
      ],
      [
        "an",
        "other"
      ],
      [
        "hk",
        "aw"
      ],
      [
        "it",
        "oo"
      ],
      [
        "it",
        "aakan"
      ],
      [
        "it",
        "ch"
      ],
      [
        "it",
        "ion"
      ],
      [
        "it",
        "ik"
      ],
      [
        "er",
        "c"
      ],
      [
        "er",
        "y"
      ],
      [
        "er",
        "ror"
      ],
      [
        "on",
        "d"
      ],
      [
        "on",
        "tee"
      ],
      [
        "im",
        "w"
      ],
      [
        "at",
        "am"
      ],
      [
        "at",
        "aahp"
      ],
      [
        "at",
        "ten"
      ],
      [
        "oo",
        "f"
      ],
      [
        "oo",
        "r"
      ],
      [
        "oo",
        "w"
      ],
      [
        "oo",
        "wi"
      ],
      [
        "is",
        "s"
      ],
      [
        "is",
        "iip"
      ],
      [
        "al",
        "oon"
      ],
      [
        "al",
        "li"
      ],
      [
        "al",
        "lo"
      ],
      [
        "al",
        "ous"
      ],
      [
        "am",
        "w"
      ],
      [
        "am",
        "pi"
      ],
      [
        "am",
        "ation"
      ],
      [
        "en",
        "ing"
      ],
      [
        "ak",
        "s"
      ],
      [
        "ak",
        "ing"
      ],
      [
        "ak",
        "ay"
      ],
      [
        "ak",
        "ook"
      ],
      [
        "ak",
        "imin"
      ],
      [
        "ak",
        "inci"
      ],
      [
        "th",
        "y"
      ],
      [
        "th",
        "ick"
      ],
      [
        "th",
        "orn"
      ],
      [
        "ar",
        "i"
      ],
      [
        "ar",
        "p"
      ],
      [
        "ar",
        "ter"
      ],
      [
        "ar",
        "vest"
      ],
      [
        "hs",
        "ah"
      ],
      [
        "waa",
        "k"
      ],
      [
        "waa",
        "hs"
      ],
      [
        "waa",
        "ki"
      ],
      [
        "waa",
        "hkw"
      ],
      [
        "waa",
        "yon"
      ],
      [
        "pi",
        "hki"
      ],
      [
        "pi",
        "ct"
      ],
      [
        "pi",
        "poon"
      ],
      [
        "wi",
        "pe"
      ],
      [
        "wi",
        "ck"
      ],
      [
        "wi",
        "hsen"
      ],
      [
        "wi",
        "kolee"
      ],
      [
        "ht",
        "aakan"
      ],
      [
        "le",
        "g"
      ],
      [
        "le",
        "hši"
      ],
      [
        "aak",
        "aan"
      ],
      [
        "ac",
        "her"
      ],
      [
        "wee",
        "k"
      ],
      [
        "wee",
        "p"
      ],
      [
        "wee",
        "ki"
      ],
      [
        "wee",
        "kan"
      ],
      [
        "ro",
        "s"
      ],
      [
        "ro",
        "t"
      ],
      [
        "ro",
        "ad"
      ],
      [
        "as",
        "k"
      ],
      [
        "es",
        "am"
      ],
      [
        "es",
        "cul"
      ],
      [
        "es",
        "sion"
      ],
      [
        "ic",
        "t"
      ],
      [
        "ic",
        "y"
      ],
      [
        "ic",
        "us"
      ],
      [
        "il",
        "aan"
      ],
      [
        "il",
        "ooki"
      ],
      [
        "to",
        "uch"
      ],
      [
        "ahk",
        "isinaakan"
      ],
      [
        "om",
        "it"
      ],
      [
        "om",
        "iš"
      ],
      [
        "re",
        "f"
      ],
      [
        "re",
        "place"
      ],
      [
        "aw",
        "iihk"
      ],
      [
        "ki",
        "inaak"
      ],
      [
        "ki",
        "hci"
      ],
      [
        "ow",
        "er"
      ],
      [
        "ah",
        "p"
      ],
      [
        "pe",
        "t"
      ],
      [
        "pe",
        "hte"
      ],
      [
        "aahk",
        "waap"
      ],
      [
        "aahk",
        "oons"
      ],
      [
        "aahk",
        "atw"
      ],
      [
        "un",
        "g"
      ],
      [
        "un",
        "us"
      ],
      [
        "un",
        "tain"
      ],
      [
        "mi",
        "d"
      ],
      [
        "mi",
        "ht"
      ],
      [
        "mi",
        "re"
      ],
      [
        "mi",
        "hc"
      ],
      [
        "ap",
        "pre"
      ],
      [
        "ci",
        "al"
      ],
      [
        "ci",
        "inkwi"
      ],
      [
        "ol",
        "ee"
      ],
      [
        "ol",
        "lar"
      ],
      [
        "Be",
        "gin"
      ],
      [
        "ad",
        "der"
      ],
      [
        "ši",
        "kan"
      ],
      [
        "ši",
        "ko"
      ],
      [
        "ši",
        "inkwee"
      ],
      [
        "kii",
        "mi"
      ],
      [
        "kii",
        "lo"
      ],
      [
        "kii",
        "hp"
      ],
      [
        "tr",
        "ad"
      ],
      [
        "tr",
        "ip"
      ],
      [
        "ot",
        "oo"
      ],
      [
        "ot",
        "ton"
      ],
      [
        "si",
        "bl"
      ],
      [
        "si",
        "ze"
      ],
      [
        "ch",
        "er"
      ],
      [
        "se",
        "x"
      ],
      [
        "se",
        "cre"
      ],
      [
        "se",
        "wn"
      ],
      [
        "ir",
        "d"
      ],
      [
        "ir",
        "ie"
      ],
      [
        "ir",
        "rel"
      ],
      [
        "ig",
        "n"
      ],
      [
        "eeh",
        "i"
      ],
      [
        "eeh",
        "wi"
      ],
      [
        "the",
        "m"
      ],
      [
        "pee",
        "waali"
      ],
      [
        "ul",
        "ata"
      ],
      [
        "id",
        "den"
      ],
      [
        "for",
        "t"
      ],
      [
        "st",
        "s"
      ],
      [
        "st",
        "art"
      ],
      [
        "ti",
        "red"
      ],
      [
        "ti",
        "peel"
      ],
      [
        "een",
        "hs"
      ],
      [
        "kw",
        "a"
      ],
      [
        "ho",
        "bat"
      ],
      [
        "ant",
        "e"
      ],
      [
        "be",
        "ak"
      ],
      [
        "li",
        "fe"
      ],
      [
        "kin",
        "d"
      ],
      [
        "kin",
        "oos"
      ],
      [
        "ck",
        "ing"
      ],
      [
        "ne",
        "ar"
      ],
      [
        "out",
        "side"
      ],
      [
        "ra",
        "irie"
      ],
      [
        "sii",
        "hs"
      ],
      [
        "ahki",
        "hki"
      ],
      [
        "ce",
        "ph"
      ],
      [
        "wii",
        "l"
      ],
      [
        "wii",
        "ciil"
      ],
      [
        "ack",
        "ed"
      ],
      [
        "em",
        "ber"
      ],
      [
        "ta",
        "wi"
      ],
      [
        "ta",
        "il"
      ],
      [
        "co",
        "ur"
      ],
      [
        "ko",
        "p"
      ],
      [
        "ko",
        "hs"
      ],
      [
        "ko",
        "hset"
      ],
      [
        "tee",
        "th"
      ],
      [
        "maa",
        "w"
      ],
      [
        "sh",
        "in"
      ],
      [
        "pl",
        "ow"
      ],
      [
        "pl",
        "um"
      ],
      [
        "row",
        "s"
      ],
      [
        "mii",
        "šim"
      ],
      [
        "de",
        "al"
      ],
      [
        "de",
        "ad"
      ],
      [
        "hp",
        "oon"
      ],
      [
        "hši",
        "htoo"
      ],
      [
        "min",
        "d"
      ],
      [
        "min",
        "oot"
      ],
      [
        "fro",
        "zen"
      ],
      [
        "ill",
        "a"
      ],
      [
        "iteeh",
        "eelotaw"
      ],
      [
        "Th",
        "orn"
      ],
      [
        "Th",
        "under"
      ],
      [
        "ip",
        "pe"
      ],
      [
        "te",
        "p"
      ],
      [
        "te",
        "hs"
      ],
      [
        "te",
        "kwee"
      ],
      [
        "ff",
        "alo"
      ],
      [
        "moo",
        "hsi"
      ],
      [
        "moo",
        "hsw"
      ],
      [
        "waan",
        "tii"
      ],
      [
        "mee",
        "mee"
      ],
      [
        "mee",
        "ting"
      ],
      [
        "po",
        "le"
      ],
      [
        "po",
        "se"
      ],
      [
        "po",
        "int"
      ],
      [
        "po",
        "ss"
      ],
      [
        "pihk",
        "wee"
      ],
      [
        "pihk",
        "ontee"
      ],
      [
        "St",
        "and"
      ],
      [
        "St",
        "one"
      ],
      [
        "ohk",
        "aa"
      ],
      [
        "alaa",
        "min"
      ],
      [
        "pil",
        "akiihi"
      ],
      [
        "awee",
        "m"
      ],
      [
        "bo",
        "y"
      ],
      [
        "bo",
        "ard"
      ],
      [
        "ie",
        "ce"
      ],
      [
        "Cr",
        "ata"
      ],
      [
        "if",
        "t"
      ],
      [
        "way",
        "s"
      ],
      [
        "yon",
        "am"
      ],
      [
        "ag",
        "o"
      ],
      [
        "ag",
        "le"
      ],
      [
        "cim",
        "wi"
      ],
      [
        "clo",
        "se"
      ],
      [
        "mo",
        "ve"
      ],
      [
        "mo",
        "ke"
      ],
      [
        "atoo",
        "hpoon"
      ],
      [
        "nah",
        "i"
      ],
      [
        "nah",
        "ik"
      ],
      [
        "ph",
        "one"
      ],
      [
        "ans",
        "eens"
      ],
      [
        "Sh",
        "ow"
      ],
      [
        "do",
        "g"
      ],
      [
        "kam",
        "w"
      ],
      [
        "htan",
        "wi"
      ],
      [
        "Le",
        "ad"
      ],
      [
        "av",
        "el"
      ],
      [
        "ex",
        "am"
      ],
      [
        "noon",
        "ti"
      ],
      [
        "ple",
        "as"
      ],
      [
        "Gr",
        "and"
      ],
      [
        "Mo",
        "ve"
      ],
      [
        "com",
        "ple"
      ],
      [
        "kot",
        "aahk"
      ],
      [
        "taa",
        "ht"
      ],
      [
        "Pl",
        "um"
      ],
      [
        "br",
        "ight"
      ],
      [
        "br",
        "idge"
      ],
      [
        "cle",
        "an"
      ],
      [
        "fe",
        "c"
      ],
      [
        "ild",
        "ing"
      ],
      [
        "kihk",
        "aapiik"
      ],
      [
        "oonsaa",
        "wimin"
      ],
      [
        "He",
        "ad"
      ],
      [
        "car",
        "ry"
      ],
      [
        "pin",
        "ši"
      ],
      [
        "miihk",
        "weel"
      ],
      [
        "bro",
        "ken"
      ],
      [
        "fr",
        "ont"
      ],
      [
        "fr",
        "uit"
      ],
      [
        "ile",
        "d"
      ],
      [
        "ni",
        "hs"
      ],
      [
        "Bu",
        "ffalo"
      ],
      [
        "bre",
        "ath"
      ],
      [
        "fi",
        "eld"
      ],
      [
        "gl",
        "ish"
      ],
      [
        "kil",
        "i"
      ],
      [
        "mat",
        "s"
      ],
      [
        "par",
        "k"
      ],
      [
        "kiihk",
        "aapii"
      ],
      [
        "ciil",
        "itee"
      ],
      [
        "Ar",
        "rive"
      ],
      [
        "Lo",
        "ve"
      ],
      [
        "poo",
        "r"
      ],
      [
        "tahk",
        "ink"
      ],
      [
        "Com",
        "b"
      ],
      [
        "Com",
        "mon"
      ],
      [
        "Ho",
        "pe"
      ],
      [
        "ey",
        "es"
      ],
      [
        "kit",
        "em"
      ],
      [
        "kisi",
        "hsiinkwee"
      ],
      [
        "mist",
        "aken"
      ],
      [
        "aahs",
        "antee"
      ],
      [
        "think",
        "ing"
      ],
      [
        "El",
        "der"
      ],
      [
        "Wr",
        "ite"
      ],
      [
        "Wr",
        "estle"
      ],
      [
        "meeh",
        "c"
      ],
      [
        "nat",
        "aweel"
      ],
      [
        "nak",
        "aani"
      ],
      [
        "aacim",
        "wi"
      ],
      [
        "ele",
        "ctr"
      ],
      [
        "Dr",
        "ink"
      ],
      [
        "Pr",
        "unus"
      ],
      [
        "Re",
        "cognize"
      ],
      [
        "Re",
        "fuse"
      ],
      [
        "cre",
        "ate"
      ],
      [
        "high",
        "ly"
      ],
      [
        "naan",
        "oohk"
      ],
      [
        "nip",
        "waayon"
      ],
      [
        "pel",
        "akii"
      ],
      [
        "sw",
        "allow"
      ],
      [
        "led",
        "ge"
      ],
      [
        "kiil",
        "hs"
      ],
      [
        "kiil",
        "hsw"
      ],
      [
        "heal",
        "er"
      ],
      [
        "Lit",
        "hobat"
      ],
      [
        "af",
        "ter"
      ],
      [
        "finish",
        "ed"
      ],
      [
        "num",
        "ber"
      ],
      [
        "noohk",
        "api"
      ],
      [
        "ohs",
        "eeni"
      ],
      [
        "tur",
        "key"
      ],
      [
        "hear",
        "ing"
      ],
      [
        "diff",
        "erent"
      ],
      [
        "As",
        "k"
      ],
      [
        "Can",
        "is"
      ],
      [
        "bow",
        "l"
      ],
      [
        "hur",
        "t"
      ],
      [
        "katoo",
        "hw"
      ],
      [
        "look",
        "s"
      ],
      [
        "oc",
        "cident"
      ],
      [
        "pat",
        "ahk"
      ],
      [
        "see",
        "ki"
      ],
      [
        "tast",
        "e"
      ],
      [
        "ahi",
        "ko"
      ],
      [
        "fire",
        "wood"
      ],
      [
        "virgini",
        "anus"
      ],
      [
        "Cho",
        "p"
      ],
      [
        "Me",
        "as"
      ],
      [
        "Mus",
        "k"
      ],
      [
        "Ne",
        "ck"
      ],
      [
        "Pi",
        "pe"
      ],
      [
        "col",
        "or"
      ],
      [
        "feel",
        "ings"
      ],
      [
        "haw",
        "k"
      ],
      [
        "je",
        "ct"
      ],
      [
        "je",
        "alous"
      ],
      [
        "ahkwee",
        "hs"
      ],
      [
        "aapiik",
        "asi"
      ],
      [
        "myaami",
        "a"
      ],
      [
        "Mi",
        "ami"
      ],
      [
        "Res",
        "pect"
      ],
      [
        "Spi",
        "rit"
      ],
      [
        "aš",
        "iihki"
      ],
      [
        "cup",
        "ine"
      ],
      [
        "gar",
        "is"
      ],
      [
        "hap",
        "py"
      ],
      [
        "jo",
        "ke"
      ],
      [
        "koohk",
        "ooš"
      ],
      [
        "vul",
        "garis"
      ],
      [
        "wor",
        "ds"
      ],
      [
        "hkin",
        "aahkw"
      ],
      [
        "coun",
        "cil"
      ],
      [
        "hpen",
        "al"
      ],
      [
        "meht",
        "ohseeni"
      ],
      [
        "excl",
        "amation"
      ],
      [
        "Cher",
        "ry"
      ],
      [
        "Hur",
        "t"
      ],
      [
        "Rem",
        "ember"
      ],
      [
        "Too",
        "th"
      ],
      [
        "Tur",
        "key"
      ],
      [
        "agr",
        "ee"
      ],
      [
        "hun",
        "ting"
      ],
      [
        "pur",
        "pose"
      ],
      [
        "swi",
        "ft"
      ],
      [
        "eepi",
        "kw"
      ],
      [
        "alen",
        "as"
      ],
      [
        "piint",
        "ik"
      ],
      [
        "locat",
        "ed"
      ],
      [
        "Fol",
        "low"
      ],
      [
        "Fet",
        "ch"
      ],
      [
        "Kn",
        "ife"
      ],
      [
        "Kans",
        "as"
      ],
      [
        "Ok",
        "lah"
      ],
      [
        "Pot",
        "ato"
      ],
      [
        "Rub",
        "us"
      ],
      [
        "Racc",
        "oon"
      ],
      [
        "Sass",
        "afr"
      ],
      [
        "Tat",
        "too"
      ],
      [
        "Trib",
        "al"
      ],
      [
        "Vit",
        "is"
      ],
      [
        "Wab",
        "ash"
      ],
      [
        "cc",
        "asin"
      ],
      [
        "cur",
        "rent"
      ],
      [
        "gir",
        "l"
      ],
      [
        "kaakii",
        "hsit"
      ],
      [
        "lit",
        "tle"
      ],
      [
        "rub",
        "ra"
      ],
      [
        "saakii",
        "wee"
      ],
      [
        "atten",
        "tion"
      ],
      [
        "pict",
        "ure"
      ],
      [
        "wick",
        "ed"
      ],
      [
        "sibl",
        "ing"
      ],
      [
        "secre",
        "t"
      ],
      [
        "ceph",
        "alus"
      ],
      [
        "Crata",
        "egus"
      ],
      [
        "mistaken",
        "ly"
      ],
      [
        "electr",
        "ic"
      ],
      [
        "Lithobat",
        "es"
      ],
      [
        "occident",
        "alis"
      ],
      [
        "Oklah",
        "oma"
      ],
      [
        "Sassafr",
        "as"
      ],
      [
        "A",
        "b"
      ],
      [
        "A",
        "bo"
      ],
      [
        "A",
        "cer"
      ],
      [
        "A",
        "tt"
      ],
      [
        "A",
        "escul"
      ],
      [
        "B",
        "it"
      ],
      [
        "B",
        "ur"
      ],
      [
        "B",
        "ag"
      ],
      [
        "B",
        "ush"
      ],
      [
        "B",
        "ob"
      ],
      [
        "B",
        "eet"
      ],
      [
        "B",
        "ath"
      ],
      [
        "B",
        "ase"
      ],
      [
        "B",
        "ark"
      ],
      [
        "B",
        "ison"
      ],
      [
        "B",
        "raid"
      ],
      [
        "B",
        "ask"
      ],
      [
        "B",
        "ird"
      ],
      [
        "C",
        "on"
      ],
      [
        "C",
        "am"
      ],
      [
        "C",
        "him"
      ],
      [
        "C",
        "ook"
      ],
      [
        "C",
        "ast"
      ],
      [
        "C",
        "ard"
      ],
      [
        "C",
        "ool"
      ],
      [
        "C",
        "rib"
      ],
      [
        "C",
        "uc"
      ],
      [
        "C",
        "otton"
      ],
      [
        "D",
        "i"
      ],
      [
        "D",
        "am"
      ],
      [
        "D",
        "ay"
      ],
      [
        "D",
        "ry"
      ],
      [
        "D",
        "ip"
      ],
      [
        "D",
        "ew"
      ],
      [
        "D",
        "ust"
      ],
      [
        "D",
        "rop"
      ],
      [
        "D",
        "ream"
      ],
      [
        "D",
        "omest"
      ],
      [
        "D",
        "oor"
      ],
      [
        "E",
        "y"
      ],
      [
        "E",
        "el"
      ],
      [
        "E",
        "le"
      ],
      [
        "E",
        "very"
      ],
      [
        "E",
        "ye"
      ],
      [
        "E",
        "agle"
      ],
      [
        "F",
        "al"
      ],
      [
        "F",
        "ar"
      ],
      [
        "F",
        "ut"
      ],
      [
        "F",
        "ur"
      ],
      [
        "F",
        "ry"
      ],
      [
        "F",
        "eel"
      ],
      [
        "F",
        "ool"
      ],
      [
        "F",
        "ight"
      ],
      [
        "F",
        "low"
      ],
      [
        "F",
        "arm"
      ],
      [
        "F",
        "ail"
      ],
      [
        "F",
        "ind"
      ],
      [
        "F",
        "ort"
      ],
      [
        "G",
        "u"
      ],
      [
        "G",
        "ar"
      ],
      [
        "G",
        "un"
      ],
      [
        "G",
        "ig"
      ],
      [
        "G",
        "lo"
      ],
      [
        "H",
        "i"
      ],
      [
        "H",
        "it"
      ],
      [
        "H",
        "am"
      ],
      [
        "H",
        "us"
      ],
      [
        "H",
        "aw"
      ],
      [
        "H",
        "ir"
      ],
      [
        "H",
        "one"
      ],
      [
        "H",
        "um"
      ],
      [
        "H",
        "ack"
      ],
      [
        "H",
        "yl"
      ],
      [
        "H",
        "onor"
      ],
      [
        "I",
        "v"
      ],
      [
        "I",
        "ow"
      ],
      [
        "J",
        "ug"
      ],
      [
        "J",
        "ew"
      ],
      [
        "J",
        "uice"
      ],
      [
        "K",
        "now"
      ],
      [
        "K",
        "ey"
      ],
      [
        "K",
        "ettle"
      ],
      [
        "K",
        "itch"
      ],
      [
        "L",
        "y"
      ],
      [
        "L",
        "em"
      ],
      [
        "L",
        "ear"
      ],
      [
        "L",
        "ist"
      ],
      [
        "L",
        "ess"
      ],
      [
        "L",
        "aug"
      ],
      [
        "L",
        "arge"
      ],
      [
        "M",
        "a"
      ],
      [
        "M",
        "en"
      ],
      [
        "M",
        "ac"
      ],
      [
        "M",
        "et"
      ],
      [
        "M",
        "ul"
      ],
      [
        "M",
        "ana"
      ],
      [
        "M",
        "yaa"
      ],
      [
        "M",
        "ist"
      ],
      [
        "M",
        "arm"
      ],
      [
        "M",
        "ush"
      ],
      [
        "M",
        "ale"
      ],
      [
        "M",
        "eet"
      ],
      [
        "N",
        "ut"
      ],
      [
        "N",
        "ail"
      ],
      [
        "N",
        "ew"
      ],
      [
        "O",
        "l"
      ],
      [
        "O",
        "pen"
      ],
      [
        "O",
        "we"
      ],
      [
        "O",
        "wl"
      ],
      [
        "P",
        "an"
      ],
      [
        "P",
        "ar"
      ],
      [
        "P",
        "ic"
      ],
      [
        "P",
        "ow"
      ],
      [
        "P",
        "ay"
      ],
      [
        "P",
        "ol"
      ],
      [
        "P",
        "ig"
      ],
      [
        "P",
        "ine"
      ],
      [
        "P",
        "each"
      ],
      [
        "P",
        "ull"
      ],
      [
        "R",
        "a"
      ],
      [
        "R",
        "ake"
      ],
      [
        "R",
        "et"
      ],
      [
        "R",
        "oot"
      ],
      [
        "R",
        "ice"
      ],
      [
        "R",
        "osa"
      ],
      [
        "R",
        "oof"
      ],
      [
        "S",
        "on"
      ],
      [
        "S",
        "ap"
      ],
      [
        "S",
        "et"
      ],
      [
        "S",
        "ell"
      ],
      [
        "S",
        "um"
      ],
      [
        "S",
        "up"
      ],
      [
        "S",
        "li"
      ],
      [
        "S",
        "ta"
      ],
      [
        "S",
        "te"
      ],
      [
        "S",
        "have"
      ],
      [
        "S",
        "we"
      ],
      [
        "S",
        "poon"
      ],
      [
        "S",
        "pr"
      ],
      [
        "S",
        "leep"
      ],
      [
        "S",
        "nake"
      ],
      [
        "S",
        "moke"
      ],
      [
        "T",
        "w"
      ],
      [
        "T",
        "im"
      ],
      [
        "T",
        "om"
      ],
      [
        "T",
        "ry"
      ],
      [
        "T",
        "ick"
      ],
      [
        "T",
        "each"
      ],
      [
        "T",
        "urn"
      ],
      [
        "T",
        "ippe"
      ],
      [
        "U",
        "l"
      ],
      [
        "V",
        "i"
      ],
      [
        "V",
        "is"
      ],
      [
        "W",
        "i"
      ],
      [
        "W",
        "is"
      ],
      [
        "W",
        "or"
      ],
      [
        "W",
        "ing"
      ],
      [
        "W",
        "ake"
      ],
      [
        "W",
        "ell"
      ],
      [
        "W",
        "ant"
      ],
      [
        "W",
        "here"
      ],
      [
        "W",
        "ound"
      ],
      [
        "W",
        "ax"
      ],
      [
        "W",
        "eed"
      ],
      [
        "W",
        "ait"
      ],
      [
        "Y",
        "ou"
      ],
      [
        "a",
        "ight"
      ],
      [
        "a",
        "waal"
      ],
      [
        "b",
        "i"
      ],
      [
        "b",
        "t"
      ],
      [
        "b",
        "it"
      ],
      [
        "b",
        "el"
      ],
      [
        "b",
        "ell"
      ],
      [
        "b",
        "ri"
      ],
      [
        "b",
        "ate"
      ],
      [
        "b",
        "ull"
      ],
      [
        "b",
        "ud"
      ],
      [
        "b",
        "ath"
      ],
      [
        "b",
        "are"
      ],
      [
        "b",
        "uck"
      ],
      [
        "b",
        "ison"
      ],
      [
        "b",
        "raid"
      ],
      [
        "b",
        "lock"
      ],
      [
        "b",
        "aking"
      ],
      [
        "c",
        "oo"
      ],
      [
        "c",
        "am"
      ],
      [
        "c",
        "es"
      ],
      [
        "c",
        "ow"
      ],
      [
        "c",
        "ti"
      ],
      [
        "c",
        "een"
      ],
      [
        "c",
        "ab"
      ],
      [
        "c",
        "ool"
      ],
      [
        "c",
        "yon"
      ],
      [
        "c",
        "iteehee"
      ],
      [
        "c",
        "aani"
      ],
      [
        "c",
        "ens"
      ],
      [
        "c",
        "ahkihkw"
      ],
      [
        "d",
        "at"
      ],
      [
        "d",
        "or"
      ],
      [
        "d",
        "ang"
      ],
      [
        "d",
        "eep"
      ],
      [
        "d",
        "amp"
      ],
      [
        "d",
        "ense"
      ],
      [
        "d",
        "ream"
      ],
      [
        "d",
        "anc"
      ],
      [
        "d",
        "ollar"
      ],
      [
        "e",
        "f"
      ],
      [
        "e",
        "hs"
      ],
      [
        "e",
        "ad"
      ],
      [
        "e",
        "gr"
      ],
      [
        "e",
        "šam"
      ],
      [
        "e",
        "kaa"
      ],
      [
        "e",
        "ase"
      ],
      [
        "e",
        "kwii"
      ],
      [
        "f",
        "o"
      ],
      [
        "f",
        "us"
      ],
      [
        "f",
        "ic"
      ],
      [
        "f",
        "ut"
      ],
      [
        "f",
        "old"
      ],
      [
        "f",
        "ool"
      ],
      [
        "f",
        "arm"
      ],
      [
        "f",
        "ull"
      ],
      [
        "f",
        "ind"
      ],
      [
        "f",
        "eed"
      ],
      [
        "f",
        "emale"
      ],
      [
        "g",
        "one"
      ],
      [
        "g",
        "ue"
      ],
      [
        "g",
        "oose"
      ],
      [
        "g",
        "ative"
      ],
      [
        "g",
        "rows"
      ],
      [
        "h",
        "or"
      ],
      [
        "h",
        "wi"
      ],
      [
        "h",
        "ic"
      ],
      [
        "h",
        "ol"
      ],
      [
        "h",
        "ig"
      ],
      [
        "h",
        "ome"
      ],
      [
        "h",
        "ind"
      ],
      [
        "h",
        "orse"
      ],
      [
        "h",
        "onor"
      ],
      [
        "h",
        "allo"
      ],
      [
        "h",
        "arvest"
      ],
      [
        "h",
        "idden"
      ],
      [
        "i",
        "v"
      ],
      [
        "i",
        "ši"
      ],
      [
        "i",
        "et"
      ],
      [
        "i",
        "kw"
      ],
      [
        "i",
        "be"
      ],
      [
        "i",
        "kaan"
      ],
      [
        "i",
        "hp"
      ],
      [
        "i",
        "inkwee"
      ],
      [
        "i",
        "ini"
      ],
      [
        "i",
        "atus"
      ],
      [
        "k",
        "ay"
      ],
      [
        "k",
        "int"
      ],
      [
        "k",
        "api"
      ],
      [
        "k",
        "awi"
      ],
      [
        "k",
        "ist"
      ],
      [
        "k",
        "eep"
      ],
      [
        "k",
        "ahaakan"
      ],
      [
        "k",
        "eet"
      ],
      [
        "k",
        "akii"
      ],
      [
        "k",
        "yaal"
      ],
      [
        "k",
        "waahk"
      ],
      [
        "k",
        "aaki"
      ],
      [
        "k",
        "ici"
      ],
      [
        "k",
        "ont"
      ],
      [
        "k",
        "imot"
      ],
      [
        "k",
        "aayo"
      ],
      [
        "l",
        "er"
      ],
      [
        "l",
        "ak"
      ],
      [
        "l",
        "us"
      ],
      [
        "l",
        "up"
      ],
      [
        "l",
        "ab"
      ],
      [
        "l",
        "ans"
      ],
      [
        "l",
        "az"
      ],
      [
        "m",
        "p"
      ],
      [
        "m",
        "or"
      ],
      [
        "m",
        "aak"
      ],
      [
        "m",
        "ac"
      ],
      [
        "m",
        "ah"
      ],
      [
        "m",
        "and"
      ],
      [
        "m",
        "int"
      ],
      [
        "m",
        "aal"
      ],
      [
        "m",
        "ood"
      ],
      [
        "m",
        "een"
      ],
      [
        "m",
        "eel"
      ],
      [
        "m",
        "em"
      ],
      [
        "m",
        "ahs"
      ],
      [
        "m",
        "ach"
      ],
      [
        "m",
        "other"
      ],
      [
        "m",
        "isi"
      ],
      [
        "m",
        "itee"
      ],
      [
        "m",
        "acro"
      ],
      [
        "m",
        "ahsen"
      ],
      [
        "m",
        "ore"
      ],
      [
        "m",
        "ootay"
      ],
      [
        "n",
        "x"
      ],
      [
        "n",
        "on"
      ],
      [
        "n",
        "im"
      ],
      [
        "n",
        "am"
      ],
      [
        "n",
        "ic"
      ],
      [
        "n",
        "aal"
      ],
      [
        "n",
        "een"
      ],
      [
        "n",
        "aham"
      ],
      [
        "n",
        "ail"
      ],
      [
        "n",
        "ame"
      ],
      [
        "n",
        "aloo"
      ],
      [
        "n",
        "orthern"
      ],
      [
        "n",
        "oohki"
      ],
      [
        "o",
        "h"
      ],
      [
        "o",
        "ki"
      ],
      [
        "o",
        "hki"
      ],
      [
        "o",
        "be"
      ],
      [
        "o",
        "cii"
      ],
      [
        "o",
        "hp"
      ],
      [
        "o",
        "ple"
      ],
      [
        "o",
        "cher"
      ],
      [
        "p",
        "a"
      ],
      [
        "p",
        "u"
      ],
      [
        "p",
        "is"
      ],
      [
        "p",
        "pi"
      ],
      [
        "p",
        "as"
      ],
      [
        "p",
        "om"
      ],
      [
        "p",
        "se"
      ],
      [
        "p",
        "ant"
      ],
      [
        "p",
        "lo"
      ],
      [
        "p",
        "ahki"
      ],
      [
        "p",
        "oot"
      ],
      [
        "p",
        "api"
      ],
      [
        "p",
        "ale"
      ],
      [
        "p",
        "ahtoo"
      ],
      [
        "p",
        "aaki"
      ],
      [
        "p",
        "ity"
      ],
      [
        "p",
        "aank"
      ],
      [
        "p",
        "rairie"
      ],
      [
        "r",
        "ace"
      ],
      [
        "r",
        "cle"
      ],
      [
        "r",
        "ation"
      ],
      [
        "s",
        "a"
      ],
      [
        "s",
        "aa"
      ],
      [
        "s",
        "in"
      ],
      [
        "s",
        "am"
      ],
      [
        "s",
        "ing"
      ],
      [
        "s",
        "el"
      ],
      [
        "s",
        "aak"
      ],
      [
        "s",
        "ap"
      ],
      [
        "s",
        "ink"
      ],
      [
        "s",
        "um"
      ],
      [
        "s",
        "lo"
      ],
      [
        "s",
        "qu"
      ],
      [
        "s",
        "pil"
      ],
      [
        "s",
        "ure"
      ],
      [
        "s",
        "land"
      ],
      [
        "s",
        "ame"
      ],
      [
        "s",
        "car"
      ],
      [
        "s",
        "ub"
      ],
      [
        "s",
        "ity"
      ],
      [
        "s",
        "uch"
      ],
      [
        "s",
        "ugar"
      ],
      [
        "s",
        "ense"
      ],
      [
        "s",
        "uff"
      ],
      [
        "s",
        "mell"
      ],
      [
        "s",
        "yl"
      ],
      [
        "s",
        "weet"
      ],
      [
        "t",
        "u"
      ],
      [
        "t",
        "in"
      ],
      [
        "t",
        "el"
      ],
      [
        "t",
        "eeh"
      ],
      [
        "t",
        "ent"
      ],
      [
        "t",
        "aap"
      ],
      [
        "t",
        "ong"
      ],
      [
        "t",
        "est"
      ],
      [
        "t",
        "ill"
      ],
      [
        "t",
        "alk"
      ],
      [
        "t",
        "ist"
      ],
      [
        "t",
        "ica"
      ],
      [
        "t",
        "ely"
      ],
      [
        "t",
        "ty"
      ],
      [
        "u",
        "al"
      ],
      [
        "u",
        "ence"
      ],
      [
        "v",
        "at"
      ],
      [
        "v",
        "is"
      ],
      [
        "v",
        "es"
      ],
      [
        "v",
        "ate"
      ],
      [
        "v",
        "ive"
      ],
      [
        "w",
        "al"
      ],
      [
        "w",
        "ing"
      ],
      [
        "w",
        "et"
      ],
      [
        "w",
        "ish"
      ],
      [
        "w",
        "aci"
      ],
      [
        "w",
        "hole"
      ],
      [
        "x",
        "t"
      ],
      [
        "y",
        "es"
      ],
      [
        "y",
        "and"
      ],
      [
        "y",
        "aahkw"
      ],
      [
        "y",
        "ou"
      ],
      [
        "y",
        "awi"
      ],
      [
        "z",
        "ibe"
      ],
      [
        "",
        ""
      ],
      [
        "š",
        "inaakosi"
      ],
      [
        "š",
        "ileni"
      ],
      [
        "aa",
        "c"
      ],
      [
        "aa",
        "h"
      ],
      [
        "aa",
        "to"
      ],
      [
        "aa",
        "ši"
      ],
      [
        "aa",
        "ti"
      ],
      [
        "aa",
        "min"
      ],
      [
        "aa",
        "miš"
      ],
      [
        "aa",
        "maawi"
      ],
      [
        "in",
        "ee"
      ],
      [
        "in",
        "ch"
      ],
      [
        "in",
        "um"
      ],
      [
        "in",
        "ate"
      ],
      [
        "in",
        "cin"
      ],
      [
        "in",
        "alis"
      ],
      [
        "in",
        "animate"
      ],
      [
        "in",
        "itik"
      ],
      [
        "ee",
        "m"
      ],
      [
        "ee",
        "waa"
      ],
      [
        "ee",
        "ci"
      ],
      [
        "ee",
        "si"
      ],
      [
        "ee",
        "ch"
      ],
      [
        "ee",
        "tee"
      ],
      [
        "ee",
        "hkw"
      ],
      [
        "ee",
        "hsee"
      ],
      [
        "ee",
        "ze"
      ],
      [
        "ee",
        "mihk"
      ],
      [
        "an",
        "o"
      ],
      [
        "an",
        "er"
      ],
      [
        "an",
        "ii"
      ],
      [
        "an",
        "aahk"
      ],
      [
        "an",
        "ch"
      ],
      [
        "an",
        "gr"
      ],
      [
        "an",
        "con"
      ],
      [
        "an",
        "top"
      ],
      [
        "an",
        "kamw"
      ],
      [
        "hk",
        "e"
      ],
      [
        "hk",
        "an"
      ],
      [
        "hk",
        "on"
      ],
      [
        "hk",
        "im"
      ],
      [
        "it",
        "s"
      ],
      [
        "it",
        "er"
      ],
      [
        "it",
        "on"
      ],
      [
        "it",
        "aw"
      ],
      [
        "er",
        "s"
      ],
      [
        "er",
        "ve"
      ],
      [
        "er",
        "ace"
      ],
      [
        "ii",
        "y"
      ],
      [
        "ii",
        "hsit"
      ],
      [
        "ii",
        "wiil"
      ],
      [
        "on",
        "ica"
      ],
      [
        "on",
        "tehs"
      ],
      [
        "im",
        "mon"
      ],
      [
        "im",
        "iti"
      ],
      [
        "im",
        "port"
      ],
      [
        "im",
        "iihsit"
      ],
      [
        "at",
        "ak"
      ],
      [
        "at",
        "or"
      ],
      [
        "at",
        "ahk"
      ],
      [
        "at",
[...]
