<pad>	0
<s>	0
</s>	0
<unk>	0
aa	-0
in	-1
ee	-2
▁a	-3
hk	-4
it	-5
an	-6
er	-7
ii	-8
on	-9
▁h	-10
im	-11
▁p	-12
▁t	-13
▁m	-14
▁s	-15
oo	-16
is	-17
at	-18
▁(	-19
▁it	-20
▁w	-21
▁k	-22
▁him	-23
am	-24
en	-25
▁c	-26
hs	-27
▁n	-28
ak	-29
ar	-30
al	-31
or	-32
▁B	-33
▁b	-34
il	-35
▁S	-36
aak	-37
▁o	-38
ing	-39
el	-40
▁f	-41
us	-42
ht	-43
ro	-44
ic	-45
es	-46
wi	-47
le	-48
wee	-49
▁C	-50
aap	-51
ac	-52
aan	-53
as	-54
ut	-55
▁I	-56
▁d	-57
et	-58
om	-59
▁H	-60
ve	-61
▁is	-62
ik	-63
▁T	-64
aahk	-65
re	-66
▁th	-67
ow	-68
aw	-69
▁g	-70
▁It	-71
aakan	-72
▁W	-73
ahk	-74
ihk	-75
un	-76
▁M	-77
ah	-78
▁P	-79
ot	-80
ip	-81
ink	-82
▁to	-83
ap	-84
ay	-85
▁l	-86
oon	-87
▁Be	-88
ol	-89
her	-90
▁L	-91
ad	-92
ed	-93
hš	-94
ave	-95
▁R	-96
▁of	-97
ake	-98
id	-99
ver	-100
ir	-101
os	-102
▁al	-103
▁F	-104
aal	-105
ur	-106
▁-	-107
▁G	-108
▁on	-109
ly	-110
int	-111
▁A	-112
and	-113
ig	-114
▁e	-115
iš	-116
iik	-117
hp	-118
▁an	-119
▁D	-120
▁kii	-121
aam	-122
ree	-123
▁the	-124
ul	-125
▁r	-126
ihs	-127
▁in	-128
ent	-129
ion	-130
oc	-131
pe	-132
ant	-133
ell	-134
ood	-135
iip	-136
eel	-137
ge	-138
em	-139
▁st	-140
aahkw	-141
um	-142
up	-143
▁at	-144
▁Have	-145
ch	-146
eek	-147
itee	-148
ear	-149
iht	-150
iihk	-151
oohk	-152
iink	-153
op	-154
ry	-155
▁E	-156
aat	-157
ep	-158
ook	-159
hing	-160
ter	-161
▁pee	-162
ra	-163
se	-164
een	-165
ihš	-166
),	-167
ace	-168
ith	-169
▁aa	-170
iver	-171
▁for	-172
▁waap	-173
ec	-174
aaw	-175
all	-176
und	-177
ack	-178
ers	-179
▁som	-180
ri	-181
▁be	-182
iil	-183
ill	-184
if	-185
ick	-186
iiw	-187
ehk	-188
ish	-189
one	-190
oot	-191
▁St	-192
▁with	-193
est	-194
old	-195
▁ap	-196
▁one	-197
ething	-198
ong	-199
out	-200
▁River	-201
▁O	-202
ast	-203
eep	-204
ia	-205
qu	-206
row	-207
▁something	-208
ool	-209
▁Th	-210
▁by	-211
aank	-212
iteeh	-213
ci	-214
ank	-215
ive	-216
▁up	-217
ight	-218
▁ahk	-219
iinkwee	-220
orn	-221
▁sh	-222
aham	-223
ater	-224
iihs	-225
ther	-226
ug	-227
ain	-228
ana	-229
ard	-230
eat	-231
eric	-232
ew	-233
ach	-234
ct	-235
eew	-236
iin	-237
low	-238
ons	-239
▁ak	-240
▁re	-241
▁sp	-242
▁tree	-243
iipiiw	-244
th	-245
▁N	-246
ate	-247
ite	-248
ohk	-249
own	-250
▁Ch	-251
▁ch	-252
erson	-253
osi	-254
ros	-255
▁mee	-256
ohs	-257
ous	-258
▁am	-259
▁aal	-260
▁fro	-261
▁siipiiw	-262
ce	-263
wan	-264
wik	-265
▁ab	-266
▁le	-267
▁nii	-268
▁out	-269
ab	-270
▁v	-271
eht	-272
ess	-273
ire	-274
▁cl	-275
eehs	-276
▁good	-277
▁peehk	-278
▁person	-279
of	-280
og	-281
aay	-282
ber	-283
ide	-284
ist	-285
oop	-286
▁Bl	-287
▁Sh	-288
ahki	-289
round	-290
▁kihk	-291
aapiik	-292
nd	-293
ši	-294
▁K	-295
ens	-296
▁aw	-297
▁el	-298
▁or	-299
aahs	-300
peak	-301
▁have	-302
▁well	-303
ke	-304
alk	-305
ort	-306
▁as	-307
▁bl	-308
▁pi	-309
▁pl	-310
▁Make	-311
▁down	-312
▁hand	-313
iteehee	-314
▁To	-315
▁Wh	-316
▁ac	-317
▁man	-318
▁mihš	-319
▁oons	-320
▁water	-321
si	-322
eal	-323
ice	-324
iic	-325
ikw	-326
▁ee	-327
hsen	-328
▁kin	-329
▁mal	-330
▁mahk	-331
waakan	-332
ea	-333
ef	-334
hc	-335
uc	-336
aht	-337
ass	-338
der	-339
oun	-340
ure	-341
▁Go	-342
▁wh	-343
aawi	-344
awee	-345
▁moo	-346
▁from	-347
▁kiihk	-348
ff	-349
ue	-350
▁so	-351
iana	-352
ihkw	-353
▁com	-354
▁nah	-355
▁hear	-356
▁other	-357
ag	-358
aac	-359
air	-360
arm	-361
eet	-362
ock	-363
ont	-364
hpik	-365
oont	-366
▁Cut	-367
▁nep	-368
▁make	-369
▁about	-370
ahaakan	-371
ek	-372
od	-373
st	-374
age	-375
akw	-376
ang	-377
ead	-378
ine	-379
ise	-380
min	-381
tle	-382
▁ro	-383
▁bad	-384
▁pil	-385
ihtoo	-386
inaak	-387
▁face	-388
ub	-389
▁Y	-390
ail	-391
ash	-392
ert	-393
gen	-394
ild	-395
iwi	-396
ose	-397
ush	-398
▁Br	-399
▁my	-400
aahp	-401
eens	-402
ross	-403
▁get	-404
▁nee	-405
intam	-406
ud	-407
▁J	-408
▁V	-409
▁y	-410
art	-411
end	-412
iiš	-413
ind	-414
ole	-415
ory	-416
▁dr	-417
▁qu	-418
ahkw	-419
▁aaš	-420
▁can	-421
▁kot	-422
▁off	-423
erican	-424
▁thing	-425
ata	-426
ath	-427
cip	-428
gin	-429
oom	-430
ull	-431
urn	-432
▁Pl	-433
▁Sp	-434
▁cr	-435
atoo	-436
▁aan	-437
▁koc	-438
▁pap	-439
aapow	-440
▁each	-441
▁kiiš	-442
▁alaam	-443
ib	-444
awi	-445
ica	-446
onk	-447
ork	-448
yaa	-449
▁Am	-450
▁go	-451
▁me	-452
▁pr	-453
▁tr	-454
imin	-455
mall	-456
over	-457
▁kis	-458
▁kiš	-459
▁pak	-460
▁wel	-461
▁Take	-462
▁aahk	-463
▁cert	-464
▁land	-465
▁poon	-466
▁tahk	-467
ndiana	-468
▁ground	-469
▁certain	-470
ie	-471
amp	-472
ehs	-473
eni	-474
for	-475
ipe	-476
now	-477
per	-478
ange	-479
here	-480
iwee	-481
onam	-482
oohs	-483
ouse	-484
outh	-485
ting	-486
▁bro	-487
▁his	-488
▁mas	-489
▁mel	-490
▁pem	-491
▁way	-492
berry	-493
inish	-494
▁clot	-495
▁cold	-496
▁waaw	-497
eather	-498
▁Speak	-499
▁wiihk	-500
išaahkw	-501
▁American	-502
pi	-503
aah	-504
ahs	-505
ahw	-506
ame	-507
ami	-508
ase	-509
ely	-510
erc	-511
get	-512
ike	-513
kin	-514
nut	-515
oft	-516
ove	-517
ugh	-518
▁ex	-519
▁li	-520
aaht	-521
inam	-522
read	-523
reen	-524
▁aht	-525
▁and	-526
▁cut	-527
▁sak	-528
aankw	-529
antam	-530
ather	-531
ation	-532
ensis	-533
irgin	-534
ohsee	-535
▁wiic	-536
▁Black	-537
▁White	-538
▁along	-539
▁heart	-540
▁place	-541
aapiikw	-542
ax	-543
eg	-544
iz	-545
oe	-546
▁U	-547
ark	-548
atw	-549
isi	-550
iss	-551
ity	-552
oke	-553
ord	-554
ple	-555
use	-556
ust	-557
▁Dr	-558
▁Gr	-559
▁Pr	-560
▁bo	-561
▁ki	-562
▁ol	-563
aant	-564
ance	-565
atee	-566
ides	-567
ihki	-568
oons	-569
reek	-570
▁Com	-571
▁aap	-572
▁ans	-573
▁red	-574
▁spp	-575
ahtoo	-576
ihtam	-577
ikaan	-578
weehs	-579
▁back	-580
▁kiil	-581
▁peht	-582
aahkii	-583
▁Throw	-584
▁ahsen	-585
▁miihk	-586
▁noont	-587
▁speak	-588
Qu	-589
by	-590
hw	-591
ix	-592
pl	-593
sh	-594
ale	-595
ani	-596
ans	-597
api	-598
are	-599
ece	-600
ect	-601
ici	-602
igh	-603
iih	-604
inc	-605
irt	-606
key	-607
uch	-608
▁Do	-609
▁br	-610
▁en	-611
▁gr	-612
▁ob	-613
hšim	-614
reat	-615
very	-616
waam	-617
wood	-618
▁aay	-619
▁all	-620
▁bre	-621
▁nip	-622
ihsen	-623
inter	-624
▁Look	-625
▁Walk	-626
▁cook	-627
▁mist	-628
▁naap	-629
▁take	-630
gether	-631
▁Creek	-632
▁poohk	-633
▁think	-634
generic	-635
inaakan	-636
▁maleew	-637
eelintam	-638
inaakosi	-639
▁together	-640
av	-641
ck	-642
ob	-643
wa	-644
▁j	-645
cim	-646
eed	-647
hci	-648
iff	-649
iko	-650
ins	-651
ird	-652
ize	-653
our	-654
pen	-655
uck	-656
yon	-657
▁He	-658
▁Wr	-659
▁ay	-660
▁pe	-661
▁sl	-662
aaki	-663
able	-664
akat	-665
atch	-666
imal	-667
oman	-668
omin	-669
oonk	-670
rong	-671
side	-672
▁Say	-673
▁ahs	-674
▁nat	-675
▁pen	-676
▁put	-677
▁sis	-678
aakii	-679
aatam	-680
ellow	-681
ihšin	-682
▁hair	-683
▁mooš	-684
▁over	-685
▁peep	-686
▁slow	-687
▁cloth	-688
▁malee	-689
▁noohk	-690
Indiana	-691
▁sister	-692
▁niihpik	-693
.)	-694
ll	-695
nt	-696
ph	-697
acc	-698
aci	-699
elf	-700
ere	-701
ife	-702
ile	-703
ili	-704
ily	-705
ime	-706
isc	-707
led	-708
uff	-709
wat	-710
▁El	-711
▁Pe	-712
▁Sc	-713
▁ar	-714
▁ev	-715
▁fl	-716
▁il	-717
▁un	-718
arry	-719
ated	-720
eent	-721
eral	-722
ikan	-723
ikol	-724
inus	-725
ipak	-726
išam	-727
otaw	-728
tern	-729
ugar	-730
waal	-731
▁cle	-732
▁hot	-733
▁ihk	-734
▁int	-735
▁kil	-736
▁pro	-737
▁rib	-738
aatee	-739
eelim	-740
ihsaa	-741
oides	-742
▁Tree	-743
▁aanc	-744
▁away	-745
▁ciil	-746
▁high	-747
▁maam	-748
▁miht	-749
▁naan	-750
▁niim	-751
▁pahk	-752
▁some	-753
▁that	-754
▁toop	-755
▁wood	-756
eekaan	-757
iinkwi	-758
▁aacim	-759
▁cover	-760
▁green	-761
▁light	-762
▁myaal	-763
▁paahp	-764
▁across	-765
▁kisihs	-766
ex	-767
ey	-768
hi	-769
ok	-770
ya	-771
ble	-772
elt	-773
era	-774
hši	-775
ian	-776
ief	-777
iim	-778
iiy	-779
law	-780
mer	-781
oos	-782
ooš	-783
oss	-784
ost	-785
rib	-786
vel	-787
way	-788
šam	-789
▁Ap	-790
▁Ar	-791
▁Cr	-792
▁kw	-793
▁ph	-794
▁sw	-795
▁us	-796
aapi	-797
aint	-798
aple	-799
aten	-800
eehk	-801
ehki	-802
htan	-803
iiwi	-804
inki	-805
oose	-806
ough	-807
pect	-808
quid	-809
ring	-810
weel	-811
▁Eat	-812
▁kit	-813
▁mat	-814
▁men	-815
▁min	-816
▁nak	-817
▁new	-818
▁sun	-819
▁tip	-820
▁tur	-821
ihtan	-822
ittle	-823
riend	-824
waahk	-825
▁Warm	-826
▁come	-827
▁cont	-828
▁corn	-829
▁diff	-830
▁dirt	-831
▁flow	-832
▁give	-833
▁heal	-834
▁heat	-835
▁hold	-836
▁iihk	-837
▁kiin	-838
▁long	-839
▁mank	-840
▁mask	-841
▁meem	-842
▁nose	-843
▁paap	-844
▁ribb	-845
wikaan	-846
▁aalhs	-847
▁black	-848
▁mouth	-849
▁myaam	-850
▁paper	-851
▁piece	-852
▁small	-853
▁throw	-854
▁wrong	-855
▁animal	-856
▁finish	-857
▁things	-858
▁cooking	-859
▁someone	-860
▁wiihkap	-861
aš	-862
be	-863
iv	-864
sk	-865
ye	-866
amw	-867
ape	-868
att	-869
awn	-870
cle	-871
dle	-872
eem	-873
eph	-874
ict	-875
ina	-876
ino	-877
iti	-878
lar	-879
mon	-880
ody	-881
ope	-882
ore	-883
rop	-884
▁Le	-885
▁On	-886
▁Sm	-887
▁So	-888
▁ag	-889
▁eš	-890
▁gl	-891
▁im	-892
▁we	-893
ahwi	-894
alis	-895
angu	-896
ards	-897
ence	-898
ense	-899
fish	-900
iiht	-901
ionk	-902
ison	-903
iton	-904
nake	-905
ness	-906
onki	-907
otam	-908
oung	-909
ount	-910
pear	-911
ream	-912
room	-913
weey	-914
▁Bre	-915
▁Put	-916
▁Red	-917
▁Sit	-918
▁aak	-919
▁ahš	-920
▁ale	-921
▁ang	-922
▁day	-923
▁fir	-924
▁hur	-925
▁kip	-926
▁mil	-927
▁nal	-928
▁pot	-929
▁rel	-930
aalak	-931
aalhs	-932
acros	-933
eehsi	-934
eself	-935
iikin	-936
irect	-937
other	-938
▁Corn	-939
▁Hold	-940
▁Play	-941
▁Stop	-942
▁Talk	-943
▁Wear	-944
▁Wild	-945
▁ahkw	-946
▁ciik	-947
▁evil	-948
▁fire	-949
▁kaak	-950
▁look	-951
▁miin	-952
▁moon	-953
▁neek	-954
▁nepw	-955
▁part	-956
▁piit	-957
▁rain	-958
▁skin	-959
▁tast	-960
▁teep	-961
▁tool	-962
aapihk	-963
ickory	-964
oohkii	-965
▁Leave	-966
▁Small	-967
▁There	-968
▁Water	-969
▁Young	-970
▁aalim	-971
▁canad	-972
▁house	-973
▁moohs	-974
▁paank	-975
▁siihs	-976
▁story	-977
▁there	-978
▁waapi	-979
▁white	-980
aatawee	-981
acrosse	-982
▁around	-983
▁direct	-984
▁liquid	-985
▁ribbon	-986
▁virgin	-987
▁winter	-988
▁yellow	-989
▁brother	-990
▁ihkipak	-991
▁keekaan	-992
▁mistake	-993
▁neehpik	-994
▁oneself	-995
▁oonsaaw	-996
▁mahkatee	-997
▁kišaapihk	-998
▁canadensis	-999
Ch	-1000
cc	-1001
fr	-1002
gg	-1003
gl	-1004
iw	-1005
ox	-1006
py	-1007
Car	-1008
ade	-1009
aph	-1010
cil	-1011
eav	-1012
enk	-1013
esc	-1014
ihp	-1015
išw	-1016
man	-1017
oct	-1018
ogn	-1019
omi	-1020
oor	-1021
orm	-1022
ott	-1023
ror	-1024
ult	-1025
ump	-1026
unk	-1027
urp	-1028
▁Cl	-1029
▁Fl	-1030
▁Gl	-1031
▁Kn	-1032
▁Sw	-1033
▁ad	-1034
▁do	-1035
▁fr	-1036
▁ky	-1037
▁mi	-1038
▁sc	-1039
West	-1040
aahš	-1041
aans	-1042
ally	-1043
amaw	-1044
amii	-1045
andy	-1046
cker	-1047
edic	-1048
eeli	-1049
etoo	-1050
ever	-1051
fter	-1052
hšin	-1053
idge	-1054
imwi	-1055
ings	-1056
inkw	-1057
olor	-1058
onci	-1059
ound	-1060
owee	-1061
raid	-1062
rail	-1063
week	-1064
weep	-1065
weet	-1066
yaak	-1067
▁Ash	-1068
▁Bar	-1069
▁Bel	-1070
▁Big	-1071
▁But	-1072
▁Eas	-1073
▁Sew	-1074
▁The	-1075
▁acc	-1076
▁alw	-1077
▁amp	-1078
▁big	-1079
▁car	-1080
▁con	-1081
▁eat	-1082
▁kap	-1083
▁num	-1084
▁old	-1085
▁pal	-1086
▁pin	-1087
▁pip	-1088
▁sal	-1089
▁wee	-1090
Querc	-1091
aapam	-1092
ative	-1093
emale	-1094
enter	-1095
ently	-1096
ident	-1097
iimin	-1098
ileni	-1099
ilook	-1100
imate	-1101
intik	-1102
ominy	-1103
▁Give	-1104
▁Grow	-1105
▁Tell	-1106
▁Wood	-1107
▁aahs	-1108
▁awee	-1109
▁cord	-1110
▁fall	-1111
▁fast	-1112
▁feel	-1113
▁kiik	-1114
▁kiim	-1115
▁lead	-1116
▁maac	-1117
▁pehc	-1118
▁rose	-1119
▁side	-1120
▁time	-1121
▁very	-1122
▁waal	-1123
eehsee	-1124
pecker	-1125
▁Bring	-1126
▁Carry	-1127
▁Dance	-1128
▁Sugar	-1129
▁aahkw	-1130
▁akwan	-1131
▁alone	-1132
▁chief	-1133
▁clear	-1134
▁dirty	-1135
▁drink	-1136
▁kaahk	-1137
▁kiihp	-1138
▁kiint	-1139
▁meeht	-1140
▁night	-1141
▁short	-1142
▁woman	-1143
Quercus	-1144
aankwee	-1145
anguage	-1146
ericana	-1147
irginia	-1148
oohkoon	-1149
osaakan	-1150
▁Change	-1151
▁Finish	-1152
▁mihtek	-1153
▁waapan	-1154
antaakan	-1155
▁Eastern	-1156
▁aahkohk	-1157
▁kociihs	-1158
▁weather	-1159
▁Virginia	-1160
▁americana	-1161
▁direction	-1162
▁aašoohkoon	-1163
az	-1164
br	-1165
cl	-1166
ft	-1167
ih	-1168
ou	-1169
ov	-1170
oy	-1171
sp	-1172
we	-1173
wn	-1174
yl	-1175
.),	-1176
Fra	-1177
alo	-1178
anc	-1179
apt	-1180
arp	-1181
asi	-1182
asp	-1183
aut	-1184
eck	-1185
eeh	-1186
eer	-1187
eld	-1188
erv	-1189
ett	-1190
fly	-1191
ful	-1192
iis	-1193
ini	-1194
oil	-1195
oma	-1196
ome	-1197
ops	-1198
osa	-1199
owi	-1200
pes	-1201
rel	-1202
ris	-1203
ron	-1204
uit	-1205
ung	-1206
usk	-1207
ute	-1208
uth	-1209
šik	-1210
▁Ab	-1211
▁Ad	-1212
▁Al	-1213
▁An	-1214
▁En	-1215
▁Me	-1216
▁Sl	-1217
▁aš	-1218
▁er	-1219
▁no	-1220
▁oo	-1221
adle	-1222
alus	-1223
arge	-1224
aris	-1225
ates	-1226
atus	-1227
eech	-1228
eekw	-1229
ehkw	-1230
elak	-1231
enam	-1232
erst	-1233
head	-1234
htaw	-1235
ider	-1236
irit	-1237
irth	-1238
isam	-1239
lect	-1240
oria	-1241
orse	-1242
rait	-1243
rive	-1244
ught	-1245
ulus	-1246
urse	-1247
urus	-1248
waap	-1249
yosi	-1250
▁Bat	-1251
▁Oak	-1252
▁Res	-1253
▁Run	-1254
▁Wal	-1255
▁ahp	-1256
▁ant	-1257
▁app	-1258
▁bow	-1259
▁ear	-1260
▁eel	-1261
▁ehk	-1262
▁ent	-1263
▁hit	-1264
▁ill	-1265
▁kak	-1266
▁kal	-1267
▁len	-1268
▁may	-1269
▁met	-1270
▁mix	-1271
▁pim	-1272
▁run	-1273
▁say	-1274
▁sew	-1275
▁tee	-1276
▁und	-1277
▁vul	-1278
▁wan	-1279
▁war	-1280
▁who	-1281
Carya	-1282
aahsi	-1283
ahsen	-1284
aweel	-1285
eekin	-1286
ifera	-1287
ihkii	-1288
iihsi	-1289
inehk	-1290
omest	-1291
oohsi	-1292
thern	-1293
▁Blow	-1294
▁Blue	-1295
▁Bull	-1296
▁Draw	-1297
▁Hair	-1298
▁Hear	-1299
▁Lake	-1300
▁Like	-1301
▁Pick	-1302
▁Pres	-1303
▁Soft	-1304
▁Wash	-1305
▁Work	-1306
▁akim	-1307
▁blue	-1308
▁else	-1309
▁fish	-1310
▁food	-1311
▁frog	-1312
▁hard	-1313
▁hole	-1314
▁into	-1315
▁maay	-1316
▁maht	-1317
▁meht	-1318
▁mehš	-1319
▁ment	-1320
▁mihs	-1321
▁nice	-1322
▁niil	-1323
▁niip	-1324
▁open	-1325
▁pank	-1326
▁pihk	-1327
▁seek	-1328
▁siik	-1329
▁soft	-1330
▁soup	-1331
▁this	-1332
▁warm	-1333
▁week	-1334
▁work	-1335
aahkam	-1336
aahkwi	-1337
aanihs	-1338
iikaan	-1339
ognize	-1340
ouncil	-1341
▁Break	-1342
▁Maple	-1343
▁Paint	-1344
▁ahtaw	-1345
▁angry	-1346
▁badly	-1347
▁birth	-1348
▁hands	-1349
▁koohk	-1350
▁kotak	-1351
▁meehc	-1352
▁mihši	-1353
▁neeht	-1354
▁pakit	-1355
▁pinkw	-1356
▁sleep	-1357
▁soonk	-1358
▁stick	-1359
aahkwee	-1360
edicine	-1361
erstand	-1362
general	-1363
orthern	-1364
ortrait	-1365
▁Butter	-1366
▁Little	-1367
▁Peoria	-1368
▁breast	-1369
▁eating	-1370
▁enough	-1371
▁hominy	-1372
▁masaan	-1373
▁turtle	-1374
intaakan	-1375
iteeheel	-1376
▁Indiana	-1377
▁anseens	-1378
▁miincip	-1379
▁oonsaay	-1380
▁piintik	-1381
imišaahkw	-1382
▁koohkooš	-1383
▁language	-1384
iinkwaakan	-1385
▁Woodpecker	-1386
aalakiinkwee	-1387
Ac	-1388
As	-1389
ae	-1390
hy	-1391
ny	-1392
ss	-1393
te	-1394
yr	-1395
Mor	-1396
ali	-1397
alw	-1398
ane	-1399
arv	-1400
ask	-1401
ato	-1402
awk	-1403
aši	-1404
cup	-1405
esi	-1406
eta	-1407
fee	-1408
ger	-1409
hio	-1410
hsw	-1411
ich	-1412
ier	-1413
iet	-1414
ift	-1415
ign	-1416
ilk	-1417
imb	-1418
imw	-1419
inš	-1420
ita	-1421
miš	-1422
not	-1423
oat	-1424
occ	-1425
oci	-1426
ogr	-1427
ond	-1428
oof	-1429
ori	-1430
ota	-1431
oud	-1432
pec	-1433
rat	-1434
roc	-1435
unt	-1436
ura	-1437
ven	-1438
ših	-1439
▁In	-1440
▁Qu	-1441
▁Ro	-1442
▁Te	-1443
▁Tr	-1444
▁de	-1445
▁ey	-1446
▁po	-1447
▁sm	-1448
▁tw	-1449
Frax	-1450
aakw	-1451
aask	-1452
aken	-1453
alaa	-1454
alia	-1455
amon	-1456
aper	-1457
appy	-1458
asin	-1459
athe	-1460
bird	-1461
eewi	-1462
eful	-1463
erve	-1464
face	-1465
ican	-1466
ield	-1467
iful	-1468
iiki	-1469
imot	-1470
inee	-1471
itch	-1472
iter	-1473
itis	-1474
itoo	-1475
ling	-1476
odge	-1477
olee	-1478
olin	-1479
onor	-1480
ooth	-1481
ošam	-1482
pihk	-1483
port	-1484
rain	-1485
rata	-1486
ried	-1487
tent	-1488
uild	-1489
used	-1490
weed	-1491
with	-1492
▁Bad	-1493
▁Can	-1494
▁Col	-1495
▁Dis	-1496
▁Dog	-1497
▁Elk	-1498
▁Fly	-1499
▁For	-1500
▁Hur	-1501
▁Ind	-1502
▁Man	-1503
▁Mar	-1504
▁Mer	-1505
▁Pad	-1506
▁Pen	-1507
▁Rec	-1508
▁Rem	-1509
▁are	-1510
▁dry	-1511
▁eeš	-1512
▁ehp	-1513
▁far	-1514
▁fis	-1515
▁gro	-1516
▁kah	-1517
▁kat	-1518
▁let	-1519
▁loc	-1520
▁mac	-1521
▁mak	-1522
▁mis	-1523
▁nam	-1524
▁nap	-1525
▁nig	-1526
▁not	-1527
▁obs	-1528
▁own	-1529
▁pat	-1530
▁per	-1531
▁pes	-1532
▁pre	-1533
▁rec	-1534
▁res	-1535
▁sit	-1536
▁str	-1537
▁tap	-1538
▁tep	-1539
▁toe	-1540
▁top	-1541
▁tow	-1542
▁tri	-1543
aahki	-1544
aamiš	-1545
aanhs	-1546
aawee	-1547
allow	-1548
anger	-1549
ansas	-1550
antee	-1551
attoo	-1552
eenti	-1553
erent	-1554
estle	-1555
ettle	-1556
eturn	-1557
ickly	-1558
icult	-1559
ihkaa	-1560
ihsin	-1561
iišik	-1562
iišim	-1563
ilaan	-1564
inkii	-1565
inois	-1566
ipakw	-1567
ition	-1568
mouth	-1569
octor	-1570
offee	-1571
ohkaa	-1572
ohkam	-1573
ollar	-1574
ookan	-1575
oonti	-1576
ootay	-1577
otogr	-1578
owder	-1579
ravel	-1580
ribal	-1581
▁Boil	-1582
▁Buck	-1583
▁Cher	-1584
▁Horn	-1585
▁Iron	-1586
▁Moon	-1587
▁Test	-1588
▁alem	-1589
▁awik	-1590
▁body	-1591
▁call	-1592
▁ceek	-1593
▁dawn	-1594
▁excl	-1595
▁firm	-1596
▁head	-1597
▁heav	-1598
▁kahk	-1599
▁kint	-1600
▁kinw	-1601
▁know	-1602
▁kohs	-1603
▁kook	-1604
▁lies	-1605
▁maaw	-1606
▁mehk	-1607
▁naat	-1608
▁niiš	-1609
▁nipw	-1610
▁nool	-1611
▁noon	-1612
▁only	-1613
▁paak	-1614
▁peek	-1615
▁pict	-1616
▁play	-1617
▁rest	-1618
▁rock	-1619
▁soon	-1620
▁taan	-1621
▁tire	-1622
▁vill	-1623
▁when	-1624
▁wind	-1625
▁wise	-1626
ihkwee	-1627
ikolee	-1628
ilooki	-1629
ohseen	-1630
opakat	-1631
thread	-1632
uffalo	-1633
weekan	-1634
wihsen	-1635
▁Apple	-1636
▁Cross	-1637
▁Great	-1638
▁Green	-1639
▁Nurse	-1640
▁Roast	-1641
▁Shoot	-1642
▁Think	-1643
▁aankw	-1644
▁aciik	-1645
▁aleel	-1646
▁awiil	-1647
▁beaut	-1648
▁being	-1649
▁comes	-1650
▁dress	-1651
▁flows	-1652
▁grape	-1653
▁hurry	-1654
▁katoo	-1655
▁leave	-1656
▁melon	-1657
▁older	-1658
▁paask	-1659
▁party	-1660
▁pelak	-1661
▁pilak	-1662
▁reach	-1663
▁river	-1664
▁sandy	-1665
▁snake	-1666
▁table	-1667
▁toohk	-1668
▁trail	-1669
▁waawi	-1670
aacimwi	-1671
aawahki	-1672
ahkihkw	-1673
ahkionk	-1674
animate	-1675
ccident	-1676
iihkaan	-1677
ikaatee	-1678
ilaakii	-1679
inaahkw	-1680
itaakan	-1681
llinois	-1682
onaakan	-1683
wikolee	-1684
▁Appear	-1685
▁Female	-1686
▁Gather	-1687
▁Indian	-1688
▁Paddle	-1689
▁Person	-1690
▁Walnut	-1691
▁ahtehs	-1692
▁akaawi	-1693
▁aweehs	-1694
▁change	-1695
▁covers	-1696
▁friend	-1697
▁leader	-1698
▁mahkat	-1699
▁nakaan	-1700
▁pileew	-1701
▁proper	-1702
▁slowly	-1703
▁tastes	-1704
▁thread	-1705
▁wiicik	-1706
Fraxinus	-1707
alaahšim	-1708
iinkweeh	-1709
inaakwat	-1710
otograph	-1711
▁Collect	-1712
▁feather	-1713
▁fishing	-1714
▁hickory	-1715
▁mahtohk	-1716
▁maleehp	-1717
▁mankiiš	-1718
▁peewaal	-1719
▁quickly	-1720
▁towards	-1721
▁waapank	-1722
▁waapant	-1723
▁waapink	-1724
▁waawiip	-1725
▁weeweep	-1726
▁wrongly	-1727
isinaakan	-1728
▁Lacrosse	-1729
▁Medicine	-1730
▁clothing	-1731
▁kocihtam	-1732
▁portrait	-1733
▁aalhsoohk	-1734
▁aalimiiht	-1735
▁beautiful	-1736
▁difficult	-1737
▁mihšipakw	-1738
▁ahsenaamiš	-1739
▁nalaawahki	-1740
▁paaskoonti	-1741
▁photograph	-1742
▁virginiana	-1743
iteeheelotaw	-1744
▁aakalaahšim	-1745
▁paankosaakan	-1746
Am	-1747
Ar	-1748
Br	-1749
Pr	-1750
Ur	-1751
bo	-1752
fl	-1753
ha	-1754
io	-1755
iy	-1756
kl	-1757
ky	-1758
nk	-1759
ns	-1760
oh	-1761
oš	-1762
so	-1763
ta	-1764
ts	-1765
tt	-1766
uy	-1767
wl	-1768
yn	-1769
ys	-1770
zz	-1771
▁z	-1772
Can	-1773
Mel	-1774
Rub	-1775
aas	-1776
aby	-1777
act	-1778
afr	-1779
ait	-1780
aks	-1781
ama	-1782
anw	-1783
cat	-1784
den	-1785
ecr	-1786
ekw	-1787
eli	-1788
elp	-1789
emp	-1790
ern	-1791
ext	-1792
gue	-1793
hic	-1794
icy	-1795
ied	-1796
ipi	-1797
irl	-1798
ium	-1799
iši	-1800
ken	-1801
kwi	-1802
les	-1803
lus	-1804
mun	-1805
mus	-1806
pos	-1807
put	-1808
ren	-1809
ric	-1810
rod	-1811
rom	-1812
rot	-1813
rus	-1814
sel	-1815
som	-1816
str	-1817
the	-1818
thy	-1819
uct	-1820
ula	-1821
ule	-1822
urd	-1823
urr	-1824
usb	-1825
uts	-1826
zen	-1827
šim	-1828
šiw	-1829
▁Ex	-1830
▁Ey	-1831
▁La	-1832
▁Li	-1833
▁Mi	-1834
▁Mo	-1835
▁Tw	-1836
▁Ur	-1837
▁We	-1838
▁co	-1839
▁em	-1840
▁et	-1841
▁he	-1842
▁iš	-1843
▁oc	-1844
▁ru	-1845
▁te	-1846
Lith	-1847
Prun	-1848
aaha	-1849
acco	-1850
agle	-1851
akay	-1852
alem	-1853
amiš	-1854
anet	-1855
anti	-1856
anus	-1857
apin	-1858
arch	-1859
ause	-1860
ball	-1861
bark	-1862
bone	-1863
egus	-1864
ekaa	-1865
enal	-1866
enas	-1867
erry	-1868
esam	-1869
etch	-1870
ešam	-1871
hkii	-1872
htoo	-1873
iece	-1874
ifer	-1875
ific	-1876
ifol	-1877
ihši	-1878
iici	-1879
iihp	-1880
ikal	-1881
ikam	-1882
ikop	-1883
ilee	-1884
illa	-1885
imiš	-1886
inch	-1887
inti	-1888
irie	-1889
ject	-1890
keye	-1891
klah	-1892
lenk	-1893
ment	-1894
mire	-1895
ning	-1896
oohp	-1897
oona	-1898
oopi	-1899
oowi	-1900
ooši	-1901
ords	-1902
osus	-1903
otoo	-1904
ower	-1905
quir	-1906
ress	-1907
ries	-1908
rost	-1909
rows	-1910
tell	-1911
ubra	-1912
uice	-1913
ward	-1914
weeš	-1915
wift	-1916
wiiy	-1917
wiki	-1918
▁Ask	-1919
▁Cle	-1920
▁Dig	-1921
▁Ear	-1922
▁Egg	-1923
▁Fol	-1924
▁Fox	-1925
▁How	-1926
▁Ice	-1927
▁Lay	-1928
▁Lie	-1929
▁May	-1930
▁Mis	-1931
▁Mon	-1932
▁Off	-1933
▁One	-1934
▁Pec	-1935
▁Pot	-1936
▁Ref	-1937
▁Sal	-1938
▁See	-1939
▁Sho	-1940
▁Str	-1941
▁Sun	-1942
▁Tea	-1943
▁Tur	-1944
▁Und	-1945
▁Wab	-1946
▁War	-1947
▁act	-1948
▁aff	-1949
▁age	-1950
▁ago	-1951
▁anc	-1952
▁ash	-1953
▁awi	-1954
▁boy	-1955
▁bur	-1956
▁but	-1957
▁cor	-1958
▁cre	-1959
▁dis	-1960
▁eem	-1961
▁eey	-1962
▁eff	-1963
▁fam	-1964
▁gen	-1965
▁has	-1966
▁hat	-1967
▁hip	-1968
▁hun	-1969
▁ice	-1970
▁ihp	-1971
▁kee	-1972
▁lot	-1973
▁mah	-1974
▁meš	-1975
▁mik	-1976
▁nay	-1977
▁neg	-1978
▁nen	-1979
▁oak	-1980
▁pan	-1981
▁par	-1982
▁pas	-1983
▁pep	-1984
▁pet	-1985
▁ref	-1986
▁sac	-1987
▁set	-1988
▁sol	-1989
▁sur	-1990
▁tek	-1991
▁ter	-1992
▁tik	-1993
▁yon	-1994
Canis	-1995
Crata	-1996
Rubus	-1997
Vitis	-1998
aamwi	-1999
aaths	-2000
aatii	-2001
aawik	-2002
aayom	-2003
aayon	-2004
acher	-2005
acked	-2006
adder	-2007
afras	-2008
ahiko	-2009
aking	-2010
ameek	-2011
ander	-2012
andle	-2013
andon	-2014
angul	-2015
arden	-2016
ardin	-2017
arrow	-2018
arter	-2019
asses	-2020
bacco	-2021
brush	-2022
ecret	-2023
eehki	-2024
eehwi	-2025
eemin	-2026
eenhs	-2027
ehtaw	-2028
ember	-2029
ening	-2030
garis	-2031
glish	-2032
ianus	-2033
icked	-2034
idden	-2035
iddle	-2036
ihtaw	-2037
iihkw	-2038
ikaat	-2039
illow	-2040
ipiik	-2041
ircle	-2042
isiip	-2043
ledge	-2044
merge	-2045
orcup	-2046
otton	-2047
right	-2048
where	-2049
woman	-2050
▁Bite	-2051
▁Capt	-2052
▁Chop	-2053
▁Comb	-2054
▁Doub	-2055
▁Fall	-2056
▁Fire	-2057
▁Fish	-2058
▁Fork	-2059
▁Head	-2060
▁Hide	-2061
▁Hope	-2062
▁Hurt	-2063
▁Jump	-2064
▁Kill	-2065
▁Lead	-2066
▁Live	-2067
▁Long	-2068
▁Love	-2069
▁Meas	-2070
▁Milk	-2071
▁Miss	-2072
▁Move	-2073
▁Musk	-2074
▁Neck	-2075
▁Pipe	-2076
▁Plum	-2077
▁Racc	-2078
▁Sand	-2079
▁Show	-2080
▁Snow	-2081
▁Year	-2082
▁aant	-2083
▁apin	-2084
▁awan	-2085
▁bass	-2086
▁bear	-2087
▁bird	-2088
▁bowl	-2089
▁burn	-2090
▁bush	-2091
▁cons	-2092
▁curr	-2093
▁dark	-2094
▁dead	-2095
▁deal	-2096
▁disc	-2097
▁eehk	-2098
▁eehs	-2099
▁ever	-2100
▁eyes	-2101
▁fear	-2102
▁feet	-2103
▁foot	-2104
▁fore	-2105
▁girl	-2106
▁hang	-2107
▁hawk	-2108
▁jeal	-2109
▁joke	-2110
▁kihc	-2111
▁kiiw	-2112
▁kiiy	-2113
▁kind	-2114
▁koon	-2115
▁last	-2116
▁life	-2117
▁maah	-2118
▁maci	-2119
▁mahs	-2120
▁mats	-2121
▁meet	-2122
▁mehc	-2123
▁mihc	-2124
▁miik	-2125
▁miis	-2126
▁mool	-2127
▁mooy	-2128
▁much	-2129
▁naal	-2130
▁naay	-2131
▁near	-2132
▁nihs	-2133
▁numb	-2134
▁ooci	-2135
▁pahs	-2136
▁pakw	-2137
▁pant	-2138
▁pers	-2139
▁piic	-2140
▁piiw	-2141
▁plow	-2142
▁plum	-2143
▁pole	-2144
▁poot	-2145
▁pres	-2146
▁quit	-2147
▁ripe	-2148
▁road	-2149
▁room	-2150
▁saak	-2151
▁salt	-2152
▁sewn	-2153
▁shin	-2154
▁sick	-2155
▁siin	-2156
▁size	-2157
▁snow	-2158
▁stop	-2159
▁taap	-2160
▁takw	-2161
▁tall	-2162
▁them	-2163
▁thus	-2164
▁town	-2165
▁trip	-2166
▁turn	-2167
▁used	-2168
▁waak	-2169
▁waay	-2170
▁walk	-2171
▁wash	-2172
▁weep	-2173
▁wihk	-2174
Lithob	-2175
Prunus	-2176
aahtoo	-2177
aakant	-2178
aakosi	-2179
aankan	-2180
ahkwat	-2181
ahkwee	-2182
akenly	-2183
akimin	-2184
arvest	-2185
ataahk	-2186
ectric	-2187
eepikw	-2188
ession	-2189
father	-2190
friend	-2191
maalhs	-2192
ocking	-2193
rairie	-2194
uckeye	-2195
usband	-2196
▁Begin	-2197
▁Dress	-2198
▁Drink	-2199
▁Elder	-2200
▁Fetch	-2201
▁Goose	-2202
▁Grand	-2203
▁Horse	-2204
▁Knife	-2205
▁Miami	-2206
▁Sense	-2207
▁Smell	-2208
▁Stand	-2209
▁Stone	-2210
▁Thorn	-2211
▁Thund	-2212
▁Write	-2213
▁aašit	-2214
▁after	-2215
▁ahkaw	-2216
▁ahšit	-2217
▁akinc	-2218
▁aleni	-2219
▁appre	-2220
▁atahk	-2221
▁canoe	-2222
▁carry	-2223
▁child	-2224
▁clean	-2225
▁close	-2226
▁cross	-2227
▁dance	-2228
▁error	-2229
▁every	-2230
▁field	-2231
▁front	-2232
▁group	-2233
▁happy	-2234
▁kaans	-2235
▁kilik	-2236
▁kitee	-2237
▁kitem	-2238
▁looks	-2239
▁maawi	-2240
▁maple	-2241
▁miihs	-2242
▁moohk	-2243
▁niihp	-2244
▁paahs	-2245
▁paint	-2246
▁phone	-2247
▁point	-2248
▁prett	-2249
▁rains	-2250
▁rubra	-2251
▁start	-2252
▁stone	-2253
▁swift	-2254
▁taaht	-2255
▁taste	-2256
▁teehs	-2257
▁teeth	-2258
▁thick	-2259
▁tired	-2260
▁touch	-2261
▁treat	-2262
▁under	-2263
▁waahs	-2264
▁wiihs	-2265
▁words	-2266
aahkatw	-2267
aamihki	-2268
ahkwaan	-2269
alaakan	-2270
alaankw	-2271
amation	-2272
ephalus	-2273
ihsetoo	-2274
iniikin	-2275
klahoma	-2276
occasin	-2277
omestic	-2278
oohpoon	-2279
ountain	-2280
quirrel	-2281
siipiiw	-2282
tention	-2283
uilding	-2284
▁Arrive	-2285
▁Center	-2286
▁Cherry	-2287
▁Coffee	-2288
▁Common	-2289
▁Follow	-2290
▁Ground	-2291
▁Potato	-2292
▁Refuse	-2293
▁Spirit	-2294
▁Tattoo	-2295
▁Turkey	-2296
▁Wabash	-2297
▁Yellow	-2298
▁alenas	-2299
▁ataahp	-2300
▁ašiihk	-2301
▁breath	-2302
▁bright	-2303
▁broken	-2304
▁comple	-2305
▁create	-2306
▁frozen	-2307
▁gather	-2308
▁healer	-2309
▁highly	-2310
▁inside	-2311
▁intens	-2312
▁kinoos	-2313
▁kohset	-2314
▁koteew	-2315
▁kweehs	-2316
▁little	-2317
▁maalhs	-2318
▁mayaaw	-2319
▁meehci	-2320
▁miišim	-2321
▁minoot	-2322
▁pakaan	-2323
▁patahk	-2324
▁pipoon	-2325
▁saakii	-2326
▁sakiin	-2327
▁secret	-2328
▁speech	-2329
▁tekwee	-2330
▁turkey	-2331
▁wicked	-2332
aahkoons	-2333
assafras	-2334
ikaateek	-2335
ikwaatee	-2336
ileehsee	-2337
iteehion	-2338
orcupine	-2339
▁Buffalo	-2340
▁Hickory	-2341
▁Raccoon	-2342
▁Respect	-2343
▁Wrestle	-2344
▁another	-2345
▁carolin	-2346
▁ciinkwi	-2347
▁council	-2348
▁current	-2349
▁hearing	-2350
▁hunting	-2351
▁jealous	-2352
▁katoohw	-2353
▁kiilohk	-2354
▁kociwee	-2355
▁kotaahk	-2356
▁kwaahkw	-2357
▁located	-2358
▁meeting	-2359
▁myaamia	-2360
▁naanaam	-2361
▁noohkap	-2362
▁outside	-2363
▁picture	-2364
▁pihkont	-2365
▁piloohs	-2366
▁swallow	-2367
▁tahkink	-2368
▁village	-2369
▁waawaap	-2370
▁wiiciil	-2371
Crataegus	-2372
aapiikasi	-2373
aapoohkii	-2374
something	-2375
▁Remember	-2376
▁aahkwaap	-2377
▁ahtawaan	-2378
▁ciinkwee	-2379
▁feelings	-2380
▁finished	-2381
▁firewood	-2382
▁kaakiihs	-2383
▁kiinaakw	-2384
▁lacrosse	-2385
▁mihšiiwi	-2386
▁naanoohk	-2387
▁nataweel	-2388
▁occident	-2389
▁oonsaawi	-2390
▁pilakiih	-2391
▁thinking	-2392
▁vulgaris	-2393
Lithobates	-2394
ihkinaahkw	-2395
iteeheeyon	-2396
▁Recognize	-2397
▁atoohpoon	-2398
▁attention	-2399
▁awiihkaan	-2400
▁different	-2401
▁ešiteehee	-2402
▁miihkweel	-2403
▁nipwaayon	-2404
▁kihkaapiik	-2405
▁mehtohseen	-2406
▁mistakenly	-2407
▁noontaahkw	-2408
ahkisinaakan	-2409
▁exclamation	-2410
▁kihkiinkwee	-2411
▁oonsaawimin	-2412
▁virginianus	-2413
▁occidentalis	-2414
▁kisihsiinkwee	-2415
Ag	-2416
An	-2417
Ap	-2418
Cy	-2419
Ph	-2420
Ul	-2421
ca	-2422
co	-2423
da	-2424
eh	-2425
gn	-2426
gu	-2427
ld	-2428
me	-2429
ne	-2430
pr	-2431
sl	-2432
vy	-2433
yc	-2434
ze	-2435
	-2436
Agk	-2437
Dip	-2438
Gen	-2439
Hir	-2440
Hyl	-2441
Ict	-2442
Jug	-2443
Lyn	-2444
Mic	-2445
Ond	-2446
Pic	-2447
Pop	-2448
Sci	-2449
Urs	-2450
Vul	-2451
abb	-2452
aca	-2453
ada	-2454
aff	-2455
aki	-2456
amb	-2457
anš	-2458
app	-2459
ari	-2460
ati	-2461
awa	-2462
awe	-2463
awl	-2464
awp	-2465
aws	-2466
ayi	-2467
azy	-2468
bow	-2469
ces	-2470
cre	-2471
cus	-2472
eaf	-2473
ede	-2474
eft	-2475
egr	-2476
ept	-2477
ery	-2478
flu	-2479
fus	-2480
haw	-2481
hki	-2482
hkw	-2483
hog	-2484
hus	-2485
hwi	-2486
ida	-2487
imi	-2488
imn	-2489
ipp	-2490
ips	-2491
irm	-2492
isw	-2493
joy	-2494
lak	-2495
len	-2496
ler	-2497
mar	-2498
mir	-2499
mit	-2500
nat	-2501
net	-2502
oba	-2503
oes	-2504
ohp	-2505
oht	-2506
oly	-2507
ooy	-2508
oph	-2509
ors	-2510
owa	-2511
oši	-2512
pak	-2513
pit	-2514
pse	-2515
rab	-2516
rad	-2517
red	-2518
rey	-2519
riv	-2520
rog	-2521
roy	-2522
rys	-2523
sts	-2524
ton	-2525
ual	-2526
udd	-2527
umm	-2528
usy	-2529
vat	-2530
wal	-2531
wig	-2532
wiš	-2533
xyr	-2534
yph	-2535
yth	-2536
▁Co	-2537
▁Ma	-2538
▁My	-2539
▁Ot	-2540
▁Ra	-2541
▁Sn	-2542
▁Un	-2543
▁af	-2544
▁av	-2545
▁ok	-2546
▁sk	-2547
▁tu	-2548
▁ur	-2549
▁vo	-2550
Acer	-2551
Aesc	-2552
Beta	-2553
Cast	-2554
Corn	-2555
Jugl	-2556
Lynx	-2557
Marm	-2558
Ohio	-2559
Rosa	-2560
aamp	-2561
aana	-2562
aati	-2563
abin	-2564
abra	-2565
acea	-2566
acem	-2567
ahee	-2568
ahoo	-2569
aker	-2570
akii	-2571
akil	-2572
akin	-2573
akit	-2574
alam	-2575
amed	-2576
amwi	-2577
anch	-2578
anci	-2579
ands	-2580
aner	-2581
anoe	-2582
anta	-2583
aria	-2584
aste	-2585
atik	-2586
ator	-2587
atra	-2588
aven	-2589
aves	-2590
awik	-2591
awil	-2592
awth	-2593
azel	-2594
bate	-2595
beam	-2596
char	-2597
cies	-2598
come	-2599
cons	-2600
earm	-2601
earn	-2602
east	-2603
eath	-2604
edly	-2605
eenš	-2606
eesi	-2607
eeta	-2608
efec	-2609
ehsi	-2610
elid	-2611
ella	-2612
emon	-2613
epar	-2614
epik	-2615
ercy	-2616
etal	-2617
etii	-2618
fall	-2619
feed	-2620
fold	-2621
fore	-2622
form	-2623
hand	-2624
hens	-2625
hind	-2626
hite	-2627
hkan	-2628
hkit	-2629
hole	-2630
hpit	-2631
hsaa	-2632
htee	-2633
htil	-2634
hyll	-2635
ibet	-2636
ical	-2637
icer	-2638
icii	-2639
icul	-2640
idae	-2641
idle	-2642
ieve	-2643
igan	-2644
ihke	-2645
iili	-2646
iini	-2647
iisi	-2648
ikaa	-2649
ilet	-2650
ills	-2651
imee	-2652
imes	-2653
imit	-2654
inaw	-2655
inhs	-2656
inks	-2657
inši	-2658
ippi	-2659
irst	-2660
isit	-2661
itaw	-2662
kiil	-2663
leas	-2664
leph	-2665
less	-2666
like	-2667
llig	-2668
most	-2669
ntep	-2670
ntii	-2671
omen	-2672
omes	-2673
omit	-2674
omiš	-2675
ompl	-2676
omus	-2677
omys	-2678
onax	-2679
oney	-2680
onia	-2681
oohw	-2682
oosi	-2683
ooti	-2684
ople	-2685
opod	-2686
osam	-2687
ouri	-2688
pare	-2689
phet	-2690
pias	-2691
poss	-2692
rect	-2693
riar	-2694
rily	-2695
rior	-2696
ripe	-2697
rise	-2698
rizz	-2699
rope	-2700
rove	-2701
rown	-2702
sent	-2703
shot	-2704
sity	-2705
tail	-2706
tely	-2707
tica	-2708
tool	-2709
ulip	-2710
ulis	-2711
uman	-2712
unch	-2713
upus	-2714
ured	-2715
vern	-2716
vive	-2717
wanw	-2718
ways	-2719
weem	-2720
ween	-2721
wise	-2722
wiya	-2723
yaal	-2724
šiwa	-2725
▁Acc	-2726
▁Ant	-2727
▁Att	-2728
▁Bag	-2729
▁Bed	-2730
▁Bit	-2731
▁Bob	-2732
▁Bur	-2733
▁Cal	-2734
▁Car	-2735
▁Cat	-2736
▁Dam	-2737
▁Day	-2738
▁Dew	-2739
▁Dry	-2740
▁Eel	-2741
▁Elm	-2742
▁Far	-2743
▁Fry	-2744
▁Fur	-2745
▁Gar	-2746
▁Gig	-2747
▁Gun	-2748
▁Ham	-2749
▁Her	-2750
▁Hit	-2751
▁Hog	-2752
▁Jew	-2753
▁Jos	-2754
▁Key	-2755
▁Mix	-2756
▁Mul	-2757
▁Mus	-2758
▁New	-2759
▁Nut	-2760
▁Old	-2761
▁Owe	-2762
▁Owl	-2763
▁Pay	-2764
▁Pep	-2765
▁Per	-2766
▁Pig	-2767
▁Pre	-2768
▁Pro	-2769
▁Sap	-2770
▁Scr	-2771
▁Set	-2772
▁Son	-2773
▁Sup	-2774
▁Sur	-2775
▁Tip	-2776
▁Tom	-2777
▁Try	-2778
▁Wax	-2779
▁You	-2780
▁aam	-2781
▁aat	-2782
▁akw	-2783
▁alb	-2784
▁ank	-2785
▁apw	-2786
▁box	-2787
▁cam	-2788
▁cat	-2789
▁col	-2790
▁cow	-2791
▁dog	-2792
▁dye	-2793
▁eas	-2794
▁eek	-2795
▁eep	-2796
▁ees	-2797
▁etc	-2798
▁fix	-2799
▁fun	-2800
▁her	-2801
▁hor	-2802
▁how	-2803
▁icy	-2804
▁iin	-2805
▁its	-2806
▁kaš	-2807
▁kiy	-2808
▁lat	-2809
▁leg	-2810
▁mad	-2811
▁mem	-2812
▁mig	-2813
▁naw	-2814
▁nic	-2815
▁nim	-2816
▁oon	-2817
▁pah	-2818
▁pay	-2819
▁rap	-2820
▁see	-2821
▁ser	-2822
▁sex	-2823
▁sib	-2824
▁spe	-2825
▁sum	-2826
▁sus	-2827
▁tat	-2828
▁tie	-2829
▁tin	-2830
▁too	-2831
▁two	-2832
▁use	-2833
▁ver	-2834
▁web	-2835
▁wet	-2836
▁weš	-2837
▁win	-2838
▁yes	-2839
▁you	-2840
Accip	-2841
Ascle	-2842
Brass	-2843
Cross	-2844
Ulmus	-2845
Ursus	-2846
aamia	-2847
aanam	-2848
ahiwi	-2849
akint	-2850
aloon	-2851
amble	-2852
amoni	-2853
amoon	-2854
anage	-2855
anket	-2856
apaac	-2857
apple	-2858
artes	-2859
asiip	-2860
atomi	-2861
aught	-2862
awaal	-2863
awpaw	-2864
board	-2865
ceive	-2866
chool	-2867
eally	-2868
eaves	-2869
eensi	-2870
ehkam	-2871
ehkaw	-2872
ehtam	-2873
ehtep	-2874
ehtol	-2875
ekwii	-2876
elash	-2877
eltis	-2878
emble	-2879
ented	-2880
ephew	-2881
erous	-2882
etoow	-2883
fruit	-2884
genus	-2885
hicus	-2886
hkici	-2887
house	-2888
iaper	-2889
iciip	-2890
icken	-2891
ietly	-2892
iform	-2893
igera	-2894
ihkam	-2895
ihkik	-2896
ihkwi	-2897
ihsah	-2898
ihsee	-2899
ihšim	-2900
iikam	-2901
iilan	-2902
ikoli	-2903
ikoon	-2904
ikwan	-2905
ility	-2906
illed	-2907
iloba	-2908
imina	-2909
immon	-2910
imney	-2911
inate	-2912
incin	-2913
incip	-2914
iniik	-2915
inoin	-2916
intii	-2917
ipper	-2918
isher	-2919
ision	-2920
isten	-2921
istor	-2922
ities	-2923
iving	-2924
iweek	-2925
jects	-2926
light	-2927
lower	-2928
moohs	-2929
ocial	-2930
ocket	-2931
ohkaw	-2932
ohkii	-2933
ohsen	-2934
ohtaw	-2935
ohšim	-2936
oleta	-2937
omach	-2938
ongue	-2939
onica	-2940
onsin	-2941
oomin	-2942
oopii	-2943
opali	-2944
opard	-2945
opper	-2946
orate	-2947
orius	-2948
osion	-2949
ought	-2950
ousin	-2951
ously	-2952
oween	-2953
pihkw	-2954
place	-2955
puter	-2956
rodon	-2957
rough	-2958
terus	-2959
ulata	-2960
ulate	-2961
umber	-2962
ument	-2963
unmar	-2964
ustom	-2965
uthor	-2966
uture	-2967
wahki	-2968
wards	-2969
water	-2970
weeli	-2971
▁Bark	-2972
▁Barn	-2973
▁Base	-2974
▁Bask	-2975
▁Bath	-2976
▁Bead	-2977
▁Bean	-2978
▁Bear	-2979
▁Beet	-2980
▁Belt	-2981
▁Bird	-2982
▁Body	-2983
▁Bush	-2984
▁Care	-2985
▁Coat	-2986
▁Comm	-2987
▁Cook	-2988
▁Cool	-2989
▁Crib	-2990
▁Disk	-2991
▁Door	-2992
▁Drop	-2993
▁Dust	-2994
▁East	-2995
▁Fail	-2996
▁Farm	-2997
▁Feel	-2998
▁Find	-2999
▁Fool	-3000
▁Fort	-3001
▁From	-3002
▁Glue	-3003
▁Hack	-3004
▁Heal	-3005
▁Help	-3006
▁Know	-3007
▁Left	-3008
▁Less	-3009
▁Lock	-3010
▁Lose	-3011
▁Male	-3012
▁Mean	-3013
▁Meet	-3014
▁Merg	-3015
▁Mich	-3016
▁Mist	-3017
▁Mush	-3018
▁Nail	-3019
▁Nose	-3020
▁Ohio	-3021
▁Open	-3022
▁Pine	-3023
▁Pour	-3024
▁Pull	-3025
▁Rake	-3026
▁Rice	-3027
▁Rock	-3028
▁Roof	-3029
▁Root	-3030
▁Sell	-3031
▁Soup	-3032
▁Stag	-3033
▁Star	-3034
▁Swim	-3035
▁That	-3036
▁This	-3037
▁Tick	-3038
▁Turn	-3039
▁Twig	-3040
▁Wait	-3041
▁Wake	-3042
▁Want	-3043
▁Weed	-3044
▁Well	-3045
▁West	-3046
▁Wing	-3047
▁Wipe	-3048
▁Wisc	-3049
▁alak	-3050
▁also	-3051
▁aneh	-3052
▁ansi	-3053
▁apes	-3054
▁awat	-3055
▁awip	-3056
▁baby	-3057
▁ball	-3058
▁band	-3059
▁bath	-3060
▁beak	-3061
▁boat	-3062
▁bull	-3063
▁busy	-3064
▁caac	-3065
▁ceen	-3066
▁chin	-3067
▁ciim	-3068
▁ciip	-3069
▁ciiš	-3070
▁coax	-3071
▁conf	-3072
▁cool	-3073
▁cour	-3074
▁damp	-3075
▁danc	-3076
▁days	-3077
▁deep	-3078
▁deer	-3079
▁delt	-3080
▁dist	-3081
▁draw	-3082
▁ease	-3083
▁elen	-3084
▁exam	-3085
▁farm	-3086
▁find	-3087
▁flat	-3088
▁fool	-3089
▁form	-3090
▁free	-3091
▁full	-3092
▁game	-3093
▁goal	-3094
▁goes	-3095
▁gone	-3096
▁hall	-3097
▁hemp	-3098
▁hide	-3099
▁hill	-3100
▁hurt	-3101
▁kaay	-3102
▁keep	-3103
▁keet	-3104
▁kihs	-3105
▁kyaa	-3106
▁lazy	-3107
▁legg	-3108
▁like	-3109
▁maak	-3110
▁maal	-3111
▁many	-3112
▁meel	-3113
▁meen	-3114
▁mihk	-3115
▁miic	-3116
▁miil	-3117
▁mind	-3118
▁mood	-3119
▁more	-3120
▁most	-3121
▁move	-3122
▁nahs	-3123
▁neen	-3124
▁neep	-3125
▁neew	-3126
▁news	-3127
▁obey	-3128
▁oler	-3129
▁oneâ	-3130
▁oxyr	-3131
▁park	-3132
▁past	-3133
▁pick	-3134
▁pity	-3135
▁plan	-3136
▁poop	-3137
▁poor	-3138
▁purp	-3139
▁pyaa	-3140
▁root	-3141
▁rope	-3142
▁salm	-3143
▁same	-3144
▁scar	-3145
▁shop	-3146
▁sink	-3147
▁sock	-3148
▁soil	-3149
▁soop	-3150
▁spec	-3151
▁stir	-3152
▁stra	-3153
▁stri	-3154
▁such	-3155
▁suff	-3156
▁taat	-3157
▁taaw	-3158
▁talk	-3159
▁term	-3160
▁test	-3161
▁than	-3162
▁thin	-3163
▁till	-3164
▁toss	-3165
▁waan	-3166
▁wear	-3167
▁wehk	-3168
▁wens	-3169
▁what	-3170
▁wipe	-3171
▁wire	-3172
▁wish	-3173
Agkist	-3174
Aralia	-3175
Cornus	-3176
Kansas	-3177
Microp	-3178
Morone	-3179
Vulpes	-3180
aahkap	-3181
aahkaw	-3182
aahsin	-3183
aakwat	-3184
aankwi	-3185
aapant	-3186
aatawi	-3187
actice	-3188
affold	-3189
ahkatw	-3190
ahkwal	-3191
ahkwan	-3192
ahotoo	-3193
anawee	-3194
ankamw	-3195
anteep	-3196
anther	-3197
antion	-3198
arters	-3199
awahki	-3200
awatoo	-3201
eelink	-3202
enatoo	-3203
ertile	-3204
escens	-3205
handed	-3206
htanwi	-3207
hyllum	-3208
hšihki	-3209
icient	-3210
icolor	-3211
ihkatw	-3212
ihkwaa	-3213
ihtank	-3214
iihkwi	-3215
iipihk	-3216
iipiti	-3217
iiwaci	-3218
iiwiil	-3219
imbing	-3220
imiihs	-3221
imotay	-3222
inchus	-3223
iniiki	-3224
intool	-3225
isease	-3226
isoner	-3227
itchen	-3228
mother	-3229
munity	-3230
olinus	-3231
oneehs	-3232
ontehs	-3233
oonkwi	-3234
oonsee	-3235
ooting	-3236
orning	-3237
planet	-3238
radict	-3239
rongly	-3240
spaper	-3241
struct	-3242
undant	-3243
urning	-3244
ustris	-3245
waahki	-3246
waahkw	-3247
▁After	-3248
▁Bathe	-3249
▁Blood	-3250
▁Braid	-3251
▁Brass	-3252
▁Broom	-3253
▁Brush	-3254
▁Catch	-3255
▁Cause	-3256
▁Choke	-3257
▁Clean	-3258
▁Climb	-3259
▁Doubt	-3260
▁Dream	-3261
▁Eagle	-3262
▁Every	-3263
▁Fight	-3264
▁Gourd	-3265
▁Grass	-3266
▁Hawth	-3267
▁Honey	-3268
▁Honor	-3269
▁House	-3270
▁Juice	-3271
▁Large	-3272
▁Laugh	-3273
▁Learn	-3274
▁Lemon	-3275
▁Lodge	-3276
▁Month	-3277
▁Peach	-3278
▁Pecan	-3279
▁Place	-3280
▁Raise	-3281
▁Shame	-3282
▁Shave	-3283
▁Sleep	-3284
▁Smoke	-3285
▁Snake	-3286
▁Spoon	-3287
▁Steal	-3288
▁Stink	-3289
▁Sweat	-3290
▁Swing	-3291
▁Teach	-3292
▁Tooth	-3293
▁Visit	-3294
▁Watch	-3295
▁Where	-3296
▁Wound	-3297
▁aapac	-3298
▁aašip	-3299
▁admir	-3300
▁again	-3301
▁agree	-3302
▁ahkan	-3303
▁akaaw	-3304
▁akook	-3305
▁alaak	-3306
▁alemw	-3307
▁aloft	-3308
▁ampen	-3309
▁apili	-3310
▁aweem	-3311
▁ayaak	-3312
▁ayiil	-3313
▁bison	-3314
▁block	-3315
▁blood	-3316
▁bound	-3317
▁braid	-3318
▁briar	-3319
▁broil	-3320
▁broth	-3321
▁brush	-3322
▁burns	-3323
▁caaht	-3324
▁cheek	-3325
▁cloud	-3326
▁color	-3327
▁cramp	-3328
▁crook	-3329
▁crush	-3330
▁dense	-3331
▁devel	-3332
▁dream	-3333
▁dried	-3334
▁drunk	-3335
▁earth	-3336
▁eecip	-3337
▁enjoy	-3338
▁eryth	-3339
▁ferry	-3340
▁first	-3341
▁flood	-3342
▁glass	-3343
▁goods	-3344
▁goose	-3345
▁grand	-3346
▁grill	-3347
▁grows	-3348
▁heavy	-3349
▁honor	-3350
▁kaahp	-3351
▁kahki	-3352
▁kapee	-3353
▁kimot	-3354
▁kocim	-3355
▁kotee	-3356
▁kwiil	-3357
▁kyaal	-3358
▁lodge	-3359
▁lupus	-3360
▁manet	-3361
▁menah	-3362
▁mercy	-3363
▁metem	-3364
▁miami	-3365
▁mitee	-3366
▁monax	-3367
▁naham	-3368
▁nakat	-3369
▁nataw	-3370
▁nawee	-3371
▁nepwi	-3372
▁niger	-3373
▁nigra	-3374
▁noise	-3375
▁ocher	-3376
▁paahk	-3377
▁pakam	-3378
▁pants	-3379
▁pemit	-3380
▁pihci	-3381
▁piihs	-3382
▁pikol	-3383
▁pleas	-3384
▁pooni	-3385
▁pyaak	-3386
▁quill	-3387
▁right	-3388
▁round	-3389
▁rufus	-3390
▁saaki	-3391
▁seens	-3392
▁sense	-3393
▁separ	-3394
▁shape	-3395
▁sharp	-3396
▁shoes	-3397
▁sides	-3398
▁smell	-3399
▁solid	-3400
▁stalk	-3401
▁still	-3402
▁stops	-3403
▁sugar	-3404
▁sweet	-3405
▁thank	-3406
▁times	-3407
▁trade	-3408
▁trick	-3409
▁truth	-3410
▁tuber	-3411
▁twins	-3412
▁voice	-3413
▁watch	-3414
▁where	-3415
▁while	-3416
▁whole	-3417
▁wiihp	-3418
▁zibet	-3419
Asimina	-3420
Juglans	-3421
Marmota	-3422
Melaner	-3423
Ondatra	-3424
Populus	-3425
Sciurus	-3426
aahkaal	-3427
aahsakw	-3428
aakaniš	-3429
aanikop	-3430
aapowee	-3431
ahsaahk	-3432
akaakan	-3433
akintam	-3434
akintee	-3435
ameekwa	-3436
anconci	-3437
angulum	-3438
aughter	-3439
azelnut	-3440
efecate	-3441
eleehsi	-3442
enaakan	-3443
fluence	-3444
hensive	-3445
htilaam	-3446
ifolium	-3447
ihkwaan	-3448
ihpenal	-3449
ilaakan	-3450
ileehši	-3451
ilookii	-3452
ipihsin	-3453
issippi	-3454
išaakan	-3455
kiilhsw	-3456
kwihtan	-3457
lenkwal	-3458
lephant	-3459
omplish	-3460
onkwaam	-3461
pecanoe	-3462
pihkatw	-3463
portant	-3464
weehsim	-3465
weekaan	-3466
▁Admire	-3467
▁Almost	-3468
▁Barter	-3469
▁Bridge	-3470
▁Bridle	-3471
▁Choose	-3472
▁Cotton	-3473
▁Cradle	-3474
▁Doctor	-3475
▁Govern	-3476
▁Handle	-3477
▁Joseph	-3478
▁Kettle	-3479
▁Leaves	-3480
▁Listen	-3481
▁Manage	-3482
▁Misund	-3483
▁Office	-3484
▁Pepper	-3485
▁Powder	-3486
▁Really	-3487
▁Return	-3488
▁Shovel	-3489
▁Spring	-3490
▁Strike	-3491
▁Toilet	-3492
▁Travel	-3493
▁Tribal	-3494
▁Writer	-3495
▁aahkol	-3496
▁aahpit	-3497
▁aahsam	-3498
▁aancip	-3499
▁aapwee	-3500
▁aayaac	-3501
▁aayaap	-3502
▁absent	-3503
▁affirm	-3504
▁afraid	-3505
▁ahkwan	-3506
▁aloohw	-3507
▁alwaam	-3508
▁always	-3509
▁apeehk	-3510
▁apikam	-3511
▁asaahs	-3512
▁ayaapi	-3513
▁baking	-3514
▁branch	-3515
▁breaks	-3516
▁bridge	-3517
▁bursts	-3518
▁camonk	-3519
▁cannot	-3520
▁charge	-3521
▁circle	-3522
▁clover	-3523
▁contin	-3524
▁cradle	-3525
▁danger	-3526
▁debate	-3527
▁dispos	-3528
▁doctor	-3529
▁dollar	-3530
▁domest	-3531
▁eehsip	-3532
▁eelaam	-3533
▁eewiya	-3534
▁effort	-3535
▁family	-3536
▁fasten	-3537
▁firmly	-3538
▁garden	-3539
▁glabra	-3540
▁hidden	-3541
▁kakiip	-3542
▁kašihk	-3543
▁keeših	-3544
▁kiilhs	-3545
▁kyaank	-3546
▁leaves	-3547
▁letter	-3548
▁mahsen	-3549
▁maleey	-3550
▁manehs	-3551
▁mature	-3552
▁mentam	-3553
▁middle	-3554
▁mikici	-3555
▁moohsi	-3556
▁moohsw	-3557
▁myaami	-3558
▁nameew	-3559
▁nearly	-3560
▁neehtw	-3561
▁nicely	-3562
▁niipin	-3563
▁niiyaa	-3564
▁nipoop	-3565
▁noonti	-3566
▁orange	-3567
▁paakiš	-3568
▁pahšik	-3569
▁papank	-3570
▁peepak	-3571
▁peepic	-3572
▁people	-3573
▁pesent	-3574
▁piimin	-3575
▁pinšiw	-3576
▁pocket	-3577
▁return	-3578
▁sakint	-3579
▁siinit	-3580
▁sleepy	-3581
▁spring	-3582
▁stands	-3583
▁stinks	-3584
▁stream	-3585
▁string	-3586
▁tapaal	-3587
▁tatank	-3588
▁teepat	-3589
▁tehtep	-3590
▁tikwee	-3591
▁tongue	-3592
▁travel	-3593
▁waapic	-3594
▁weekiw	-3595
▁willow	-3596
▁worker	-3597
▁yonder	-3598
Aesculus	-3599
Illinois	-3600
Oklahoma	-3601
Picoides	-3602
aakaanhs	-3603
aakeelim	-3604
aapantam	-3605
aapiikat	-3606
aapiikin	-3607
aapiteeh	-3608
aataakan	-3609
ahkionki	-3610
akwaapow	-3611
alwaakan	-3612
constell	-3613
ihtaakan	-3614
iinkween	-3615
ikwaatam	-3616
imitiwee	-3617
iteeheem	-3618
iversity	-3619
lligator	-3620
ohkiišik	-3621
onamahwi	-3622
ootaakan	-3623
waahkosi	-3624
witeehee	-3625
yaalotaw	-3626
▁Believe	-3627
▁Blanket	-3628
▁Buckeye	-3629
▁Capture	-3630
▁Chimney	-3631
▁Council	-3632
▁Cracked	-3633
▁Dislike	-3634
▁English	-3635
▁Feather	-3636
▁Husband	-3637
▁Kitchen	-3638
▁Measure	-3639
▁Mistake	-3640
▁Muskrat	-3641
▁Myaamia	-3642
▁Painted	-3643
▁Prophet	-3644
▁Scratch	-3645
▁Slipper	-3646
▁Support	-3647
▁Thunder	-3648
▁aacimwi	-3649
▁aahkosi	-3650
▁aalahkw	-3651
▁aamaawi	-3652
▁aatotam	-3653
▁abandon	-3654
▁ahkihkw	-3655
▁ahsahkw	-3656
▁ahšikan	-3657
▁alwaaht	-3658
▁angrily	-3659
▁animate	-3660
▁ashamed	-3661
▁clothes	-3662
▁consent	-3663
▁correct	-3664
▁covered	-3665
▁dancing	-3666
▁discard	-3667
▁dressed	-3668
▁falling	-3669
▁forearm	-3670
▁foreign	-3671
▁forever	-3672
▁harvest	-3673
▁hearted	-3674
▁kihkihs	-3675
▁kiilhsw	-3676
▁kiilihs	-3677
▁kiiwaht	-3678
▁kiišaan	-3679
▁kiišikw	-3680
▁kinoont	-3681
▁kweehsi	-3682
▁leopard	-3683
▁meemeet	-3684
▁mehtahk	-3685
▁mihsool	-3686
▁miihkim	-3687
▁miikaal	-3688
▁neehsee	-3689
▁neekawi	-3690
▁nepwaam	-3691
▁numbers	-3692
▁objects	-3693
▁oonsaal	-3694
▁paapiic	-3695
▁peehkic	-3696
▁peeweey	-3697
▁prairie	-3698
▁purpose	-3699
▁quietly	-3700
▁refrain	-3701
▁related	-3702
▁respect	-3703
▁sacchar	-3704
▁sibling	-3705
▁siihsip	-3706
▁sisters	-3707
▁sitting	-3708
▁smaller	-3709
▁soonkin	-3710
▁species	-3711
▁stomach	-3712
▁surface	-3713
▁taawaaw	-3714
▁threads	-3715
▁through	-3716
▁tobacco	-3717
▁triloba	-3718
▁upright	-3719
▁waahsee	-3720
▁welcome	-3721
Accipiter	-3722
Asclepias	-3723
aankweepi	-3724
aapantani	-3725
ardinalis	-3726
ataahkomi	-3727
ehkwaakan	-3728
iciipihki	-3729
ihkanawee	-3730
iicaanihs	-3731
iinaakosi	-3732
ocephalus	-3733
unmarried	-3734
weeyohsee	-3735
▁Bathroom	-3736
▁Blackhaw	-3737
▁Dewberry	-3738
▁Hawthorn	-3739
▁Illinois	-3740
▁Mayapple	-3741
▁Michigan	-3742
▁Mulberry	-3743
▁Mushroom	-3744
▁Northern	-3745
▁Practice	-3746
▁Preserve	-3747
▁Squirrel	-3748
▁abundant	-3749
▁ahkweehs	-3750
▁aleeliih	-3751
▁american	-3752
▁anaahkap	-3753
▁antopali	-3754
▁apineens	-3755
▁awiipiti	-3756
▁awiiwiil	-3757
▁brothers	-3758
▁building	-3759
▁ciilitee	-3760
▁climbing	-3761
▁downward	-3762
▁electric	-3763
▁iihkipak	-3764
▁illinoin	-3765
▁kahkeenš	-3766
▁kahkiiti	-3767
▁kahkitee	-3768
▁kakapaac	-3769
▁kiinteel	-3770
▁kociween	-3771
▁maneehwi	-3772
▁moccasin	-3773
▁mountain	-3774
▁naapinam	-3775
▁naloomin	-3776
▁neekatik	-3777
▁neekawik	-3778
▁negative	-3779
▁noolinti	-3780
▁obsoleta	-3781
▁obstruct	-3782
▁oleracea	-3783
▁pahkiiht	-3784
▁peewaali	-3785
▁pelakiih	-3786
▁pleasing	-3787
▁poohkihš	-3788
▁prettily	-3789
▁prisoner	-3790
▁relative	-3791
▁secretly	-3792
▁separate	-3793
▁setigera	-3794
▁shooting	-3795
▁sleeping	-3796
▁speaking	-3797
▁specific	-3798
▁starting	-3799
▁straight	-3800
▁striatus	-3801
▁strongly	-3802
▁toopalam	-3803
▁waapanki	-3804
▁waawaahs	-3805
Melanerpes	-3806
aahkwikaan	-3807
aantiikaan	-3808
aataweeyon	-3809
iimišaahkw	-3810
iinkweemin	-3811
iinkweemiš	-3812
ikaateekan	-3813
imiihsiton	-3814
inaakosion	-3815
▁Butterfly	-3816
▁Butternut	-3817
▁Groundhog	-3818
▁Hackberry	-3819
▁Sassafras	-3820
▁Wisconsin	-3821
▁aayaahkam	-3822
▁ahkwaatam	-3823
▁ahpwaakan	-3824
▁ayaakwaam	-3825
▁ciikaahkw	-3826
▁community	-3827
▁contented	-3828
▁deltoides	-3829
▁domestica	-3830
▁eešaakant	-3831
▁halloween	-3832
▁important	-3833
▁inanimate	-3834
▁intensely	-3835
▁kaanseens	-3836
▁kiihkišam	-3837
▁kiilohkim	-3838
▁kineepikw	-3839
▁knowledge	-3840
▁mahkateem	-3841
▁mahkateew	-3842
▁meehtaaha	-3843
▁meetaaths	-3844
▁mihšiimin	-3845
▁nepwinehk	-3846
▁noonaakan	-3847
▁oonsaawee	-3848
▁pakitaham	-3849
▁palustris	-3850
▁pihkontee	-3851
▁piintikii	-3852
▁piitilaan	-3853
▁pikolakit	-3854
▁porcupine	-3855
▁recognize	-3856
▁saakiiwee	-3857
▁salmoides	-3858
▁taahtakii	-3859
▁tipeelink	-3860
▁wiihkweet	-3861
Agkistrodon	-3862
Micropterus	-3863
akimišaahkw	-3864
▁Everywhere	-3865
▁Gooseberry	-3866
▁Largemouth	-3867
▁Tippecanoe	-3868
▁aahsanteep	-3869
▁admiration	-3870
▁alemontehs	-3871
▁alwaamyaak	-3872
▁breastfeed	-3873
▁completely	-3874
▁contradict	-3875
▁eewiyawiki	-3876
▁kaakiihsit	-3877
▁keekaanwik	-3878
▁kihkintool	-3879
▁kiihtilaam	-3880
▁kiipihkatw	-3881
▁kinoosaawi	-3882
▁kociihsaap	-3883
▁mahsenaham	-3884
▁mihtekwaap	-3885
▁miihkintam	-3886
▁moošwaakan	-3887
▁naapiinkwi	-3888
▁oxyrinchus	-3889
▁paahpihtoo	-3890
▁sufficient	-3891
▁triangulum	-3892
▁understand	-3893
▁zibethicus	-3894
▁amataahkomi	-3895
▁ceenkwihtan	-3896
▁kiihkoneehs	-3897
▁kiinaakwapi	-3898
▁kisihsinehk	-3899
▁kisimitiwee	-3900
▁mahkateewee	-3901
▁meemileehši	-3902
▁mihcalaankw	-3903
▁minooteenhs	-3904
▁naapinaakan	-3905
▁nahikwaatee	-3906
▁paapahsaahk	-3907
▁pilakiihiwi	-3908
▁waapahaakan	-3909
constellation	-3910
▁aankwaahsakw	-3911
▁ahsenaamišip	-3912
▁apprehensive	-3913
▁carolinensis	-3914
▁mankiišaahkw	-3915
▁paahpahaakan	-3916
▁photographed	-3917
▁weeweepihsaa	-3918
▁wiihkapaakan	-3919
▁Misunderstand	-3920
▁illinoinensis	-3921
▁kitemaakeelim	-3922
▁kišaapihkaahk	-3923
▁mehtohseeniwi	-3924
▁	-3925
a	-3926
i	-3927
e	-3928
o	-3929
n	-3930
t	-3931
h	-3932
s	-3933
k	-3934
r	-3935
-	-3936
l	-3937
m	-3938
w	-3939
p	-3940
c	-3941
,	-3942
u	-3943
d	-3944
g	-3945
y	-3946
f	-3947
b	-3948
(	-3949
)	-3950
v	-3951
š	-3952
B	-3953
S	-3954
C	-3955
I	-3956
H	-3957
T	-3958
M	-3959
P	-3960
W	-3961
L	-3962
A	-3963
R	-3964
F	-3965
G	-3966
D	-3967
x	-3968
E	-3969
'	-3970
O	-3971
q	-3972
N	-3973
z	-3974
K	-3975
V	-3976
.	-3977
/	-3978
J	-3979
U	-3980
Y	-3981
j	-3982
Q	-3983
!	-3984
;	-3985
Z	-3986
	-3987
	-3988
â	-3989
&	-3990
?	-3991
	-3992
	-3993
Ã	-3994
Ì	-3995
